{
  "version": "1.0",
  "truncation": null,
  "padding": null,
  "added_tokens": [
    {
      "id": 0,
      "content": "[UNK]",
      "single_word": false,
      "lstrip": false,
      "rstrip": false,
      "normalized": false,
      "special": true
    }
  ],
  "normalizer": null,
  "pre_tokenizer": {
    "type": "Metaspace",
    "replacement": "▁",
    "prepend_scheme": "never",
    "split": true
  },
  "post_processor": null,
  "decoder": {
    "type": "Metaspace",
    "replacement": "▁",
    "prepend_scheme": "never",
    "split": true
  },
  "model": {
    "type": "BPE",
    "dropout": null,
    "unk_token": "[UNK]",
    "continuing_subword_prefix": null,
    "end_of_word_suffix": null,
    "fuse_unk": false,
    "byte_fallback": false,
    "ignore_merges": false,
    "vocab": {
      "[UNK]": 0,
      "\n": 1,
      "!": 2,
      "\"": 3,
      "#": 4,
      "$": 5,
      "%": 6,
      "&": 7,
      "'": 8,
      "(": 9,
      ")": 10,
      "*": 11,
      "+": 12,
      ",": 13,
      "-": 14,
      ".": 15,
      "/": 16,
      "0": 17,
      "1": 18,
      "2": 19,
      "3": 20,
      "4": 21,
      "5": 22,
      "6": 23,
      "7": 24,
      "8": 25,
      "9": 26,
      ":": 27,
      ";": 28,
      "<": 29,
      "=": 30,
      ">": 31,
      "?": 32,
      "@": 33,
      "A": 34,
      "B": 35,
      "C": 36,
      "D": 37,
      "E": 38,
      "F": 39,
      "G": 40,
      "H": 41,
      "I": 42,
      "J": 43,
      "K": 44,
      "L": 45,
      "M": 46,
      "N": 47,
      "O": 48,
      "P": 49,
      "Q": 50,
      "R": 51,
      "S": 52,
      "T": 53,
      "U": 54,
      "V": 55,
      "W": 56,
      "X": 57,
      "Y": 58,
      "Z": 59,
      "[": 60,
      "\\": 61,
      "]": 62,
      "^": 63,
      "_": 64,
      "`": 65,
      "a": 66,
      "b": 67,
      "c": 68,
      "d": 69,
      "e": 70,
      "f": 71,
      "g": 72,
      "h": 73,
      "i": 74,
      "j": 75,
      "k": 76,
      "l": 77,
      "m": 78,
      "n": 79,
      "o": 80,
      "p": 81,
      "q": 82,
      "r": 83,
      "s": 84,
      "t": 85,
      "u": 86,
      "v": 87,
      "w": 88,
      "x": 89,
      "y": 90,
      "z": 91,
      "{": 92,
      "|": 93,
      "}": 94,
      "~": 95,
      "«": 96,
      "°": 97,
      "·": 98,
      "»": 99,
      "Ö": 100,
      "á": 101,
      "â": 102,
      "æ": 103,
      "ç": 104,
      "è": 105,
      "é": 106,
      "í": 107,
      "ñ": 108,
      "ö": 109,
      "ü": 110,
      "ā": 111,
      "ī": 112,
      "İ": 113,
      "Ś": 114,
      "ś": 115,
      "ū": 116,
      "ș": 117,
      "ə": 118,
      "ɦ": 119,
      "ɪ": 120,
      "ɾ": 121,
      "ʊ": 122,
      "ʱ": 123,
      "ʼ": 124,
      "ˈ": 125,
      "ː": 126,
      "ί": 127,
      "α": 128,
      "δ": 129,
      "θ": 130,
      "ν": 131,
      "ο": 132,
      "π": 133,
      "ς": 134,
      "ό": 135,
      "،": 136,
      "؛": 137,
      "ء": 138,
      "آ": 139,
      "ؤ": 140,
      "ئ": 141,
      "ا": 142,
      "ب": 143,
      "ت": 144,
      "ث": 145,
      "ج": 146,
      "ح": 147,
      "خ": 148,
      "د": 149,
      "ذ": 150,
      "ر": 151,
      "ز": 152,
      "س": 153,
      "ش": 154,
      "ص": 155,
      "ض": 156,
      "ط": 157,
      "ظ": 158,
      "ع": 159,
      "غ": 160,
      "ـ": 161,
      "ف": 162,
      "ق": 163,
      "ل": 164,
      "م": 165,
      "ن": 166,
      "ه": 167,
      "و": 168,
      "ي": 169,
      "ً": 170,
      "َ": 171,
      "ُ": 172,
      "ِ": 173,
      "٪": 174,
      "٫": 175,
      "٬": 176,
      "ٰ": 177,
      "ٺ": 178,
      "ٻ": 179,
      "ٽ": 180,
      "پ": 181,
      "ٿ": 182,
      "ڀ": 183,
      "ڃ": 184,
      "ڄ": 185,
      "چ": 186,
      "ڇ": 187,
      "ڊ": 188,
      "ڌ": 189,
      "ڍ": 190,
      "ڏ": 191,
      "ڙ": 192,
      "ڦ": 193,
      "ک": 194,
      "ڪ": 195,
      "گ": 196,
      "ڱ": 197,
      "ڳ": 198,
      "ں": 199,
      "ڻ": 200,
      "ھ": 201,
      "ہ": 202,
      "ی": 203,
      "ے": 204,
      "۔": 205,
      "۰": 206,
      "۱": 207,
      "۲": 208,
      "۳": 209,
      "۴": 210,
      "۵": 211,
      "۶": 212,
      "۷": 213,
      "۸": 214,
      "۹": 215,
      "۽": 216,
      "۾": 217,
      "ँ": 218,
      "ं": 219,
      "ः": 220,
      "अ": 221,
      "आ": 222,
      "इ": 223,
      "ई": 224,
      "उ": 225,
      "ऊ": 226,
      "ऋ": 227,
      "ऍ": 228,
      "ए": 229,
      "ऐ": 230,
      "ऑ": 231,
      "ओ": 232,
      "औ": 233,
      "क": 234,
      "ख": 235,
      "ग": 236,
      "घ": 237,
      "ङ": 238,
      "च": 239,
      "छ": 240,
      "ज": 241,
      "झ": 242,
      "ञ": 243,
      "ट": 244,
      "ठ": 245,
      "ड": 246,
      "ढ": 247,
      "ण": 248,
      "त": 249,
      "थ": 250,
      "द": 251,
      "ध": 252,
      "न": 253,
      "प": 254,
      "फ": 255,
      "ब": 256,
      "भ": 257,
      "म": 258,
      "य": 259,
      "र": 260,
      "ल": 261,
      "ळ": 262,
      "व": 263,
      "श": 264,
      "ष": 265,
      "स": 266,
      "ह": 267,
      "़": 268,
      "ा": 269,
      "ि": 270,
      "ी": 271,
      "ु": 272,
      "ू": 273,
      "ृ": 274,
      "े": 275,
      "ै": 276,
      "ॉ": 277,
      "ॊ": 278,
      "ो": 279,
      "ौ": 280,
      "्": 281,
      "।": 282,
      "०": 283,
      "१": 284,
      "२": 285,
      "३": 286,
      "४": 287,
      "५": 288,
      "६": 289,
      "७": 290,
      "८": 291,
      "९": 292,
      "॰": 293,
      "ం": 294,
      "ః": 295,
      "అ": 296,
      "ఆ": 297,
      "ఇ": 298,
      "ఈ": 299,
      "ఉ": 300,
      "ఋ": 301,
      "ఎ": 302,
      "ఏ": 303,
      "ఐ": 304,
      "ఒ": 305,
      "ఓ": 306,
      "ఔ": 307,
      "క": 308,
      "ఖ": 309,
      "గ": 310,
      "ఘ": 311,
      "చ": 312,
      "ఛ": 313,
      "జ": 314,
      "ఞ": 315,
      "ట": 316,
      "ఠ": 317,
      "డ": 318,
      "ఢ": 319,
      "ణ": 320,
      "త": 321,
      "థ": 322,
      "ద": 323,
      "ధ": 324,
      "న": 325,
      "ప": 326,
      "ఫ": 327,
      "బ": 328,
      "భ": 329,
      "మ": 330,
      "య": 331,
      "ర": 332,
      "ల": 333,
      "ళ": 334,
      "వ": 335,
      "శ": 336,
      "ష": 337,
      "స": 338,
      "హ": 339,
      "ా": 340,
      "ి": 341,
      "ీ": 342,
      "ు": 343,
      "ూ": 344,
      "ృ": 345,
      "ె": 346,
      "ే": 347,
      "ై": 348,
      "ొ": 349,
      "ో": 350,
      "ౌ": 351,
      "్": 352,
      "ṅ": 353,
      "ṇ": 354,
      "Ṛ": 355,
      "ṣ": 356,
      "ṭ": 357,
      "Ἰ": 358,
      " ": 359,
      " ": 360,
      "‌": 361,
      "‍": 362,
      "‎": 363,
      "–": 364,
      "—": 365,
      "‘": 366,
      "’": 367,
      "“": 368,
      "”": 369,
      "†": 370,
      "•": 371,
      "…": 372,
      "′": 373,
      "″": 374,
      "‹": 375,
      "›": 376,
      "⁠": 377,
      "⁡": 378,
      "₹": 379,
      "↑": 380,
      "−": 381,
      "ⓘ": 382,
      "▁": 383,
      "﻿": 384,
      "wi": 385,
      "ki": 386,
      "wiki": 387,
      "di": 388,
      "dia": 389,
      "or": 390,
      "ht": 391,
      "tp": 392,
      "](": 393,
      ":/": 394,
      "http": 395,
      "://": 396,
      "pe": 397,
      "](http": 398,
      "s://": 399,
      "](https://": 400,
      "g/": 401,
      ".or": 402,
      ".org/": 403,
      "pedia": 404,
      ".org/wiki": 405,
      ".wiki": 406,
      ".org/wiki/": 407,
      ".wikipedia": 408,
      ".wikipedia.org/wiki/": 409,
      "▁[": 410,
      "te": 411,
      "▁\"": 412,
      "\")": 413,
      "en": 414,
      "in": 415,
      "on": 416,
      "an": 417,
      "ti": 418,
      "re": 419,
      "In": 420,
      "20": 421,
      "th": 422,
      "al": 423,
      "ar": 424,
      "India": 425,
      "er": 426,
      "](https://en": 427,
      "hi": 428,
      "](https://en.wikipedia.org/wiki/": 429,
      "▁|": 430,
      "ci": 431,
      "es": 432,
      "tion": 433,
      "ार": 434,
      "of": 435,
      "](https://hi": 436,
      "](https://hi.wikipedia.org/wiki/": 437,
      "▁क": 438,
      "te_": 439,
      "्र": 440,
      "▁-": 441,
      "ار": 442,
      "#ci": 443,
      "#cite_": 444,
      "is": 445,
      "the": 446,
      "om": 447,
      "▁(": 448,
      "and": 449,
      "ان": 450,
      "sd": 451,
      "](https://sd": 452,
      "](https://sd.wikipedia.org/wiki/": 453,
      "भार": 454,
      "भारत": 455,
      "▁of": 456,
      "ou": 457,
      "్ర": 458,
      "▁the": 459,
      "ac": 460,
      "ri": 461,
      "as": 462,
      "](https://te": 463,
      "](https://te.wikipedia.org/wiki/": 464,
      "19": 465,
      "▁स": 466,
      "no": 467,
      "\\_": 468,
      "▁ج": 469,
      "le": 470,
      "201": 471,
      "oo": 472,
      "OT": 473,
      "](https://en.wikipedia.org/wiki/India": 474,
      "ార": 475,
      "lin": 476,
      "ate": 477,
      "▁India": 478,
      "red": 479,
      "ارت": 480,
      "ڀارت": 481,
      "edi": 482,
      "200": 483,
      "▁म": 484,
      "**": 485,
      "्य": 486,
      "-0": 487,
      "▁in": 488,
      "si": 489,
      "am": 490,
      "-1": 491,
      "=1": 492,
      "link": 493,
      "ed": 494,
      "action": 495,
      "edit": 496,
      "action=": 497,
      "action=edit": 498,
      "\n\n": 499,
      "&red": 500,
      "?action=edit": 501,
      "link=1": 502,
      "&redlink=1": 503,
      "?action=edit&redlink=1": 504,
      "ation": 505,
      "ent": 506,
      "et": 507,
      "li": 508,
      "ref": 509,
      "at": 510,
      "▁C": 511,
      "▁and": 512,
      "note": 513,
      "▁s": 514,
      ").": 515,
      "id": 516,
      "▁p": 517,
      "#cite_ref": 518,
      "#cite_note": 519,
      "रा": 520,
      "ag": 521,
      "▁प": 522,
      "[[": 523,
      "▁م": 524,
      "ాల": 525,
      "ook": 526,
      "us": 527,
      "#cite_ref-": 528,
      "#cite_note-": 529,
      "▁A": 530,
      "▁c": 531,
      "ad": 532,
      "ون": 533,
      "్య": 534,
      "▁S": 535,
      "▁س": 536,
      "ें": 537,
      "fi": 538,
      "ين": 539,
      "ान": 540,
      "ing": 541,
      "lo": 542,
      "78": 543,
      "ang": 544,
      "र्": 545,
      "భార": 546,
      "يا": 547,
      "భారత": 548,
      "▁के": 549,
      "ve": 550,
      "దే": 551,
      "](https://hi.wikipedia.org/wiki/भारत": 552,
      "▁و": 553,
      "com": 554,
      "దేశ": 555,
      "స్": 556,
      "▁ह": 557,
      "um": 558,
      "▁جي": 559,
      "▁t": 560,
      "▁[↑": 561,
      "we": 562,
      "he": 563,
      "्त": 564,
      "▁ప": 565,
      "▁ا": 566,
      "ww": 567,
      "▁1": 568,
      "▁b": 569,
      "IS": 570,
      "ur": 571,
      "ory": 572,
      "సా": 573,
      "ic": 574,
      "▁f": 575,
      "978": 576,
      "FO": 577,
      "ائ": 578,
      "▁P": 579,
      "NOT": 580,
      "OTNOT": 581,
      "FOOTNOT": 582,
      "FOOTNOTE": 583,
      "ర్": 584,
      "▁ڪ": 585,
      "ter": 586,
      "BN": 587,
      "_of": 588,
      "ISBN": 589,
      "ul": 590,
      "▁آ": 591,
      "_of_": 592,
      "ce": 593,
      "ist": 594,
      "న్": 595,
      "▁m": 596,
      "ري": 597,
      "\"),": 598,
      "00": 599,
      "ra": 600,
      "ch": 601,
      "ver": 602,
      "या": 603,
      "िक": 604,
      "un": 605,
      ".\n": 606,
      "st": 607,
      "it": 608,
      "\n|": 609,
      "ro": 610,
      "](https://sd.wikipedia.org/wiki/ڀارت": 611,
      "▁|\n|": 612,
      "our": 613,
      "▁में": 614,
      "21": 615,
      "ीय": 616,
      "هن": 617,
      "ons": 618,
      "enti": 619,
      "▁अ": 620,
      "لي": 621,
      "▁201": 622,
      "▁ت": 623,
      "▁M": 624,
      "▁**": 625,
      "▁پ": 626,
      "identi": 627,
      "cial": 628,
      "fier": 629,
      "identifier": 630,
      "tic": 631,
      "▁۾": 632,
      "book": 633,
      "-0)": 634,
      "jp": 635,
      "▁T": 636,
      "లు": 637,
      "▁a": 638,
      "ों": 639,
      "web": 640,
      "identifier)": 641,
      "రా": 642,
      "▁R": 643,
      "25": 644,
      "]](https://en.wikipedia.org/wiki/India": 645,
      "mp": 646,
      ".jp": 647,
      "es/": 648,
      "age": 649,
      "](https://en.wikipedia.org/wiki/India#cite_ref-": 650,
      "]](https://en.wikipedia.org/wiki/India#cite_note-": 651,
      "वि": 652,
      "chi": 653,
      "ना": 654,
      "23": 655,
      ".g": 656,
      "▁ज": 657,
      "భారతదేశ": 658,
      "il": 659,
      "▁۽": 660,
      "्ष": 661,
      "books": 662,
      "ol": 663,
      "ور": 664,
      "IT": 665,
      ".శ": 666,
      ".శ.": 667,
      "10": 668,
      "ाल": 669,
      "లో": 670,
      "_क": 671,
      "),": 672,
      "సా.శ.": 673,
      "دي": 674,
      "▁है": 675,
      ".com": 676,
      "▁w": 677,
      "de": 678,
      ".[[": 679,
      "ER": 680,
      "▁द": 681,
      "▁to": 682,
      "ateg": 683,
      "26": 684,
      "▁B": 685,
      "EF": 686,
      "ITER": 687,
      "me": 688,
      "▁క": 689,
      "_(": 690,
      "ni": 691,
      "ategory": 692,
      "رو": 693,
      "ITEREF": 694,
      "ment": 695,
      "ategory:": 696,
      "त्र": 697,
      "▁D": 698,
      "24": 699,
      "angu": 700,
      "राज": 701,
      "res": 702,
      "india": 703,
      "ेश": 704,
      "न्": 705,
      "िया": 706,
      "err": 707,
      "▁*": 708,
      "త్ర": 709,
      "ty": 710,
      "ాలు": 711,
      "ourc": 712,
      "▁19": 713,
      ".com/": 714,
      "రి": 715,
      "هي": 716,
      "క్": 717,
      "_S": 718,
      "और": 719,
      "ంద": 720,
      "▁e": 721,
      ":B": 722,
      "error": 723,
      "▁ब": 724,
      "·**": 725,
      "▁**·**": 726,
      "Spe": 727,
      "ని": 728,
      "ंग": 729,
      "▁వ": 730,
      "up": 731,
      "oun": 732,
      "▁भारत": 733,
      "▁की": 734,
      "▁.": 735,
      "ال": 736,
      "11": 737,
      "ay": 738,
      "cal": 739,
      "▁प्र": 740,
      "ources/": 741,
      "ला": 742,
      "▁त": 743,
      "▁India\")": 744,
      "भा": 745,
      "्व": 746,
      "ir": 747,
      "ig": 748,
      "▁20": 749,
      "Sources/": 750,
      "▁न": 751,
      "ookSources/": 752,
      ":BookSources/": 753,
      "28": 754,
      "ly": 755,
      "▁से": 756,
      "Special": 757,
      "ha": 758,
      "www": 759,
      "con": 760,
      "fn": 761,
      "978-0": 762,
      "ct": 763,
      "▁l": 764,
      "ld": 765,
      "Har": 766,
      "▁E": 767,
      "ల్": 768,
      "g)": 769,
      "▁./": 770,
      "భారతదేశం": 771,
      "▁और": 772,
      "#C": 773,
      "▁•": 774,
      "▁[↑](https://en.wikipedia.org/wiki/India#cite_ref-": 775,
      "50": 776,
      "www.": 777,
      "#CITEREF": 778,
      "978-0-": 779,
      "مي": 780,
      "_India": 781,
      "_in": 782,
      "▁200": 783,
      "▁का": 784,
      "ంగ": 785,
      "▁ک": 786,
      "_स": 787,
      "ber": 788,
      "▁స": 789,
      "▁N": 790,
      "%20": 791,
      "▁ن": 792,
      "▁H": 793,
      "▁ب": 794,
      "्रे": 795,
      "ता": 796,
      "se": 797,
      "▁మ": 798,
      "را": 799,
      "ست": 800,
      "Uni": 801,
      "्ट": 802,
      "Special:BookSources/": 803,
      "ma": 804,
      "▁G": 805,
      "30": 806,
      "op": 807,
      "-4": 808,
      "archi": 809,
      "ry": 810,
      "يو": 811,
      "ational": 812,
      ".in": 813,
      "్రా": 814,
      "ew": 815,
      "22": 816,
      "anguage": 817,
      "outh": 818,
      "ved": 819,
      "زم": 820,
      "ary": 821,
      "rom": 822,
      "ీయ": 823,
      "\n-": 824,
      "▁ه": 825,
      "for": 826,
      "##": 827,
      "_A": 828,
      "tu": 829,
      "▁\"भारत": 830,
      "errors": 831,
      "-8": 832,
      "29": 833,
      "▁[\"": 834,
      "ండ": 835,
      "archive": 836,
      "--": 837,
      "\").": 838,
      "-3": 839,
      "arg": 840,
      "13": 841,
      "स्त": 842,
      "▁---": 843,
      "▁व": 844,
      "राज्य": 845,
      "Harv": 846,
      "▁ٿ": 847,
      "199": 848,
      "18": 849,
      "क्ष": 850,
      "ount": 851,
      "sh": 852,
      "ित": 853,
      "14": 854,
      "mpl": 855,
      "el": 856,
      "జ్య": 857,
      "न्द": 858,
      ":Harv": 859,
      "▁చ": 860,
      "▁on": 861,
      "▁ٻ": 862,
      "ab": 863,
      "ov": 864,
      "ub": 865,
      "▁g": 866,
      "▁ل": 867,
      "umb": 868,
      "15": 869,
      "ng": 870,
      "ي_": 871,
      "rit": 872,
      "▁re": 873,
      "▁J": 874,
      "_P": 875,
      ".jpg)": 876,
      "▁आ": 877,
      "ress": 878,
      "_and": 879,
      "తా": 880,
      "ము": 881,
      "ి.": 882,
      "sia": 883,
      "The": 884,
      "_of_India": 885,
      "षा": 886,
      "orld": 887,
      "నా": 888,
      "ak": 889,
      "पु": 890,
      "calf": 891,
      "archive.org/": 892,
      "ion": 893,
      "్ట": 894,
      "ind": 895,
      "ति": 896,
      "with": 897,
      "తి": 898,
      "etcalf": 899,
      "▁(identifier)": 900,
      "_(identifier)": 901,
      "▁(identifier)\")": 902,
      "ास": 903,
      "\"](https://": 904,
      "▁ڀارت": 905,
      "har": 906,
      "\"))": 907,
      "ted": 908,
      "](https://en.wikipedia.org/wiki/India#CITEREF": 909,
      "▁ح": 910,
      "زمرو": 911,
      "▁([": 912,
      "సి": 913,
      "▁F": 914,
      "▁[S": 915,
      "▁n": 916,
      "త్": 917,
      "▁ع": 918,
      "▁جو": 919,
      "est": 920,
      "16": 921,
      "▁or": 922,
      "ain": 923,
      "gle": 924,
      "mons": 925,
      "ust": 926,
      "px": 927,
      "per": 928,
      "▁p.": 929,
      "web.": 930,
      "media": 931,
      "/http": 932,
      "web/": 933,
      "archive.org/web/": 934,
      "web.archive.org/web/": 935,
      "ام": 936,
      "▁th": 937,
      "s/": 938,
      "يل": 939,
      "स्": 940,
      "id=": 941,
      "▁d": 942,
      "ast": 943,
      "_C": 944,
      "AA": 945,
      "ish": 946,
      "27": 947,
      "40": 948,
      "oogle": 949,
      "▁[ISBN": 950,
      ".p": 951,
      ".gov": 952,
      "List": 953,
      "▁h": 954,
      "17": 955,
      "يون": 956,
      "▁ان": 957,
      "▁(సా.శ.": 958,
      "▁by": 959,
      "im": 960,
      ".google": 961,
      "?id=": 962,
      "]](https://en.wikipedia.org/wiki/India#cite_note-FOOTNOTE": 963,
      "भाषा": 964,
      "ut": 965,
      "▁from": 966,
      "books.google": 967,
      ".wikimedia": 968,
      "books?id=": 969,
      "యా": 970,
      "▁In": 971,
      "versi": 972,
      "load": 973,
      "ులు": 974,
      "▁రా": 975,
      "Category:": 976,
      "commons": 977,
      "]](https://sd.wikipedia.org/wiki/ڀارت": 978,
      "मा": 979,
      "▁को": 980,
      "ep": 981,
      "upload": 982,
      "था": 983,
      "]](https://hi.wikipedia.org/wiki/भारत": 984,
      "–సా.శ.": 985,
      "-9": 986,
      "णी": 987,
      "▁ق": 988,
      "▁آهي": 989,
      "▁అ": 990,
      "pedia/": 991,
      ".org/wikipedia/": 992,
      ".wikimedia.org/wikipedia/": 993,
      "upload.wikimedia.org/wikipedia/": 994,
      "![": 995,
      "▁for": 996,
      "ge": 997,
      "री": 998,
      "▁L": 999,
      "Metcalf": 1000,
      "▁د": 1001,
      "thumb": 1002,
      "](https://upload.wikimedia.org/wikipedia/": 1003,
      "▁\"S": 1004,
      "commons/": 1005,
      "ची": 1006,
      "over": 1007,
      "978-1": 1008,
      "देश": 1009,
      "ages": 1010,
      "](https://upload.wikimedia.org/wikipedia/commons/": 1011,
      "thumb/": 1012,
      "▁ग": 1013,
      "ort": 1014,
      "ئي": 1015,
      "▁ر": 1016,
      "▁O": 1017,
      "▁ప్ర": 1018,
      "يٽ": 1019,
      "ड़": 1020,
      "ిక": 1021,
      "▁\"ISBN": 1022,
      "ISBN_(identifier)": 1023,
      "conom": 1024,
      "](https://upload.wikimedia.org/wikipedia/commons/thumb/": 1025,
      "px-": 1026,
      "▁पर": 1027,
      "versity": 1028,
      "▁Category:": 1029,
      "تي": 1030,
      "తం": 1031,
      "▁उ": 1032,
      "▁تي": 1033,
      "▁ए": 1034,
      "ens": 1035,
      "▁[*": 1036,
      "ष्ट": 1037,
      "ाद": 1038,
      "▁گ": 1039,
      "▁है।": 1040,
      "*.": 1041,
      "▁is": 1042,
      "▁[A": 1043,
      "templ": 1044,
      "ిన": 1045,
      "జ్యం": 1046,
      "▁Indian": 1047,
      "▁श": 1048,
      "_के": 1049,
      "ap": 1050,
      "do": 1051,
      "▁K": 1052,
      ".in/": 1053,
      "ot": 1054,
      "](https://en.wikipedia.org/wiki/S": 1055,
      "log": 1056,
      "జా": 1057,
      "inal": 1058,
      "books.google.com/": 1059,
      "books.google.com/books?id=": 1060,
      "a_": 1061,
      "▁[म": 1062,
      "▁be": 1063,
      "्रेणी": 1064,
      "▁W": 1065,
      "_म": 1066,
      "\n\n##": 1067,
      "ంచ": 1068,
      "కు": 1069,
      "ther": 1070,
      "ولي": 1071,
      "श्रेणी": 1072,
      "](http://": 1073,
      "ष्ट्र": 1074,
      "'s": 1075,
      "_in_India": 1076,
      "▁کان": 1077,
      "arget": 1078,
      "يڪ": 1079,
      "का": 1080,
      "▁सं": 1081,
      "विश": 1082,
      "](https://te.wikipedia.org/wiki/భారతదేశం": 1083,
      "▁\"C": 1084,
      "▁The": 1085,
      "-2": 1086,
      "der": 1087,
      "ले": 1088,
      "47": 1089,
      ")[[": 1090,
      "ने": 1091,
      "*](https://": 1092,
      "ను": 1093,
      "పూ": 1094,
      "▁[C": 1095,
      "ेत्र": 1096,
      "](https://hi.wikipedia.org/wiki/भारत#cite_ref-": 1097,
      "]](https://hi.wikipedia.org/wiki/भारत#cite_note-": 1098,
      "\n\n[": 1099,
      "نگ": 1100,
      "%2": 1101,
      "భా": 1102,
      "يش": 1103,
      "प्र": 1104,
      "म्": 1105,
      "-5": 1106,
      "िल": 1107,
      "av": 1108,
      "p.": 1109,
      "▁[↑](https://sd.wikipedia.org/wiki/ڀارت": 1110,
      "ప్ర": 1111,
      "]](https://sd.wikipedia.org/wiki/ڀارت#cite_note-": 1112,
      "35": 1113,
      "ia": 1114,
      "ద్": 1115,
      "ింద": 1116,
      "ance": 1117,
      "](Special:BookSources/": 1118,
      "](https://en.wikipedia.org/wiki/C": 1119,
      "ول": 1120,
      "_के_": 1121,
      "_M": 1122,
      "nd": 1123,
      "▁Uni": 1124,
      "▁इ": 1125,
      "▁ఉ": 1126,
      "اري": 1127,
      "2.": 1128,
      "70": 1129,
      "्या": 1130,
      "1.": 1131,
      "ans": 1132,
      "िय": 1133,
      "al_": 1134,
      "▁pp.": 1135,
      "▁\"M": 1136,
      "tern": 1137,
      "gh": 1138,
      "s,": 1139,
      "اص": 1140,
      "हि": 1141,
      "ी](https://hi.wikipedia.org/wiki/": 1142,
      "uc": 1143,
      "▁ఆ": 1144,
      "og": 1145,
      "ensus": 1146,
      "ज़": 1147,
      "▁no": 1148,
      "em": 1149,
      "▁ش": 1150,
      "-7": 1151,
      "36": 1152,
      "सं": 1153,
      "ates": 1154,
      ".jpg/": 1155,
      "aj": 1156,
      "ence": 1157,
      "सा": 1158,
      "▁de": 1159,
      "ڪي": 1160,
      "▁ర": 1161,
      "ud": 1162,
      "▁[M": 1163,
      "PA": 1164,
      "▁[↑](https://en.wikipedia.org/wiki/India#cite_ref-FOOTNOTE": 1165,
      "38": 1166,
      "بر": 1167,
      "त्त": 1168,
      "▁र": 1169,
      "umm": 1170,
      "▁./زمرو": 1171,
      "opul": 1172,
      "count": 1173,
      "_D": 1174,
      "ow": 1175,
      "ong": 1176,
      "لائ": 1177,
      "మా": 1178,
      "▁సా": 1179,
      "భారతీయ": 1180,
      "lig": 1181,
      "les": 1182,
      "Indian": 1183,
      "oli": 1184,
      "వా": 1185,
      "&p": 1186,
      "os": 1187,
      "ear": 1188,
      "ys": 1189,
      "రు": 1190,
      "](https://en.wikipedia.org/wiki/M": 1191,
      "hin": 1192,
      "ڪو": 1193,
      "rie": 1194,
      "tein": 1195,
      "iginal": 1196,
      "▁[B": 1197,
      "CS": 1198,
      "-10": 1199,
      "వి": 1200,
      "ష్ట": 1201,
      "\")\n-": 1202,
      "ana": 1203,
      "ార్": 1204,
      "र्व": 1205,
      "పూ.": 1206,
      "ib": 1207,
      "▁\"B": 1208,
      "ame": 1209,
      "art": 1210,
      "_T": 1211,
      "_ج": 1212,
      "زي": 1213,
      "ंड": 1214,
      "క్ష": 1215,
      "2006": 1216,
      "▁\"Special:BookSources/": 1217,
      "](https://en.wikipedia.org/wiki/ISBN_(identifier)": 1218,
      "▁[ISBN](https://en.wikipedia.org/wiki/ISBN_(identifier)": 1219,
      "िस": 1220,
      "▁ڏ": 1221,
      "▁as": 1222,
      "ore": 1223,
      "స్థ": 1224,
      "రిత్ర": 1225,
      "ue": 1226,
      "2011": 1227,
      "g=": 1228,
      "رب": 1229,
      "राष्ट्र": 1230,
      "ائي": 1231,
      "▁original": 1232,
      "&pg=": 1233,
      "-6": 1234,
      "omm": 1235,
      "48": 1236,
      "opulation": 1237,
      "all": 1238,
      "cy": 1239,
      "سٽ": 1240,
      "▁I": 1241,
      "_B": 1242,
      "_N": 1243,
      "▁ल": 1244,
      "▁هن": 1245,
      "ستان": 1246,
      "titu": 1247,
      "und": 1248,
      "60": 1249,
      "overn": 1250,
      "▁ص": 1251,
      "istory": 1252,
      "34": 1253,
      "2018": 1254,
      "న్న": 1255,
      "land": 1256,
      "رڪ": 1257,
      "▁\"P": 1258,
      "▁सा": 1259,
      "्षेत्र": 1260,
      "ai": 1261,
      "ru": 1262,
      "ం:": 1263,
      "चि": 1264,
      "-t": 1265,
      "7.": 1266,
      "nic": 1267,
      "ll": 1268,
      "سان": 1269,
      "وي": 1270,
      "मन": 1271,
      "ी_": 1272,
      "▁राज्य": 1273,
      "language": 1274,
      "▁\"A": 1275,
      "_b": 1276,
      "&pg=PA": 1277,
      "ند": 1278,
      "पा": 1279,
      "web.archive.org/web/201": 1280,
      "श्रेणी:Harv": 1281,
      "ries": 1282,
      "ity": 1283,
      "%2C": 1284,
      "जा": 1285,
      "▁\"म": 1286,
      "rchi": 1287,
      "▁Ret": 1288,
      "لڪ": 1289,
      "▁भाषा": 1290,
      "▁Press": 1291,
      "artic": 1292,
      "rieved": 1293,
      "▁Retrieved": 1294,
      "htm": 1295,
      "▁हैं": 1296,
      "▁with": 1297,
      "39": 1298,
      "▁st": 1299,
      "ءِ": 1300,
      "جي": 1301,
      "▁چ": 1302,
      "▁य": 1303,
      "▁वि": 1304,
      "![](https://upload.wikimedia.org/wikipedia/commons/thumb/": 1305,
      "ile": 1306,
      "గా": 1307,
      "ani": 1308,
      "ob": 1309,
      "▁भ": 1310,
      "▁[↑](https://sd.wikipedia.org/wiki/ڀارت#cite_ref-": 1311,
      "05": 1312,
      "▁*[": 1313,
      "▁&": 1314,
      "ంట": 1315,
      "కి": 1316,
      "ata": 1317,
      "overnment": 1318,
      "▁Asia": 1319,
      "/https://": 1320,
      "](https://en.wikipedia.org/wiki/B": 1321,
      ".\n-": 1322,
      "ूची": 1323,
      "ke": 1324,
      "1)": 1325,
      "45": 1326,
      "మ్రా": 1327,
      "▁di": 1328,
      "ష్ట్ర": 1329,
      "4.": 1330,
      "ate_": 1331,
      "نت": 1332,
      "गर": 1333,
      "250": 1334,
      "ummit": 1335,
      "ంత": 1336,
      "vi": 1337,
      "ction": 1338,
      "لط": 1339,
      "ations": 1340,
      "▁[↑](https://hi.wikipedia.org/wiki/भारत#cite_ref-": 1341,
      "n_": 1342,
      "لا": 1343,
      "▁ف": 1344,
      "▁کي": 1345,
      "*](https://books.google.com/books?id=": 1346,
      "3.": 1347,
      "mber": 1348,
      "](https://en.wikipedia.org/wiki/P": 1349,
      "▁[P": 1350,
      "led": 1351,
      "▁University": 1352,
      "ءَ": 1353,
      "وا": 1354,
      "ेला": 1355,
      "పు": 1356,
      "ard": 1357,
      "2010": 1358,
      "▁\"T": 1359,
      "ank": 1360,
      "6.": 1361,
      "ff": 1362,
      "हा": 1363,
      "ori": 1364,
      "ati": 1365,
      "▁న": 1366,
      "india.gov": 1367,
      "978-0-19": 1368,
      "anguages": 1369,
      "▁./زمرو:": 1370,
      "ism": 1371,
      "\nCategory:": 1372,
      "2)": 1373,
      "onstitu": 1374,
      "कार": 1375,
      "पर": 1376,
      "మి": 1377,
      "ాన": 1378,
      "▁कर": 1379,
      "ंग्रे": 1380,
      "لائق": 1381,
      "rchived": 1382,
      "▁language": 1383,
      "क्त": 1384,
      "िर": 1385,
      "ोल": 1386,
      "eral": 1387,
      "indu": 1388,
      "49": 1389,
      "పా": 1390,
      "▁ఇ": 1391,
      "▁త": 1392,
      "భాష": 1393,
      "_G": 1394,
      "▁\"E": 1395,
      "ات": 1396,
      "با": 1397,
      "कि": 1398,
      "मी": 1399,
      "▁was": 1400,
      "tics": 1401,
      "au": 1402,
      "3)": 1403,
      "AJ": 1404,
      "80": 1405,
      "▁جا": 1406,
      "हिन्द": 1407,
      "tim": 1408,
      "als": 1409,
      "Stein": 1410,
      "_R": 1411,
      "పాల": 1412,
      "లీ": 1413,
      "هه": 1414,
      "ंध": 1415,
      "ी\")": 1416,
      "ेष": 1417,
      "](https://hi.wikipedia.org/wiki/म": 1418,
      "▁ex": 1419,
      "ine": 1420,
      "ated": 1421,
      "37": 1422,
      "5.": 1423,
      "6)": 1424,
      "BAJ": 1425,
      "QBAJ": 1426,
      "_p": 1427,
      "دا": 1428,
      "سي": 1429,
      "▁దేశ": 1430,
      "ाना": 1431,
      "స్తా": 1432,
      "▁अन": 1433,
      "o-": 1434,
      "▁are": 1435,
      "sher": 1436,
      "df": 1437,
      "other": 1438,
      "▁an": 1439,
      "hel": 1440,
      "/http://": 1441,
      "..": 1442,
      "द्": 1443,
      "से": 1444,
      "▁\"ڀارت": 1445,
      "▁क्षेत्र": 1446,
      "ral": 1447,
      "వర్": 1448,
      "ాయ": 1449,
      "ومي": 1450,
      "▁\"م": 1451,
      "▁\"List": 1452,
      "▁(P": 1453,
      "र्म": 1454,
      "▁\"D": 1455,
      "cl": 1456,
      "धान": 1457,
      "वा": 1458,
      "ोत": 1459,
      "\\_S": 1460,
      "amb": 1461,
      "esh": 1462,
      "rad": 1463,
      "](https://en.wikipedia.org/wiki/A": 1464,
      "چو": 1465,
      "भि": 1466,
      "श्": 1467,
      "](https://sd.wikipedia.org/wiki/م": 1468,
      "\\_errors": 1469,
      "8.": 1470,
      "_s": 1471,
      "sion": 1472,
      "conomic": 1473,
      "మ్రాజ్యం": 1474,
      "National": 1475,
      "a\")": 1476,
      "sv": 1477,
      "\"))\n": 1478,
      "_1": 1479,
      "धार": 1480,
      "ृत": 1481,
      "lic": 1482,
      "▁con": 1483,
      "▁ने": 1484,
      "](https://en.wikipedia.org/wiki/E": 1485,
      "List_of_": 1486,
      "▁[2": 1487,
      "AAQBAJ": 1488,
      "mb": 1489,
      "ني": 1490,
      "्रा": 1491,
      "దేశ్": 1492,
      "▁\"G": 1493,
      "aki": 1494,
      "wn": 1495,
      "ark": 1496,
      ")\")": 1497,
      "new": 1498,
      "▁3": 1499,
      "-1)": 1500,
      "▁De": 1501,
      "در": 1502,
      "▁4": 1503,
      "eng": 1504,
      "▁مان": 1505,
      "▁سان": 1506,
      "विशेष": 1507,
      "▁V": 1508,
      "sian": 1509,
      "90": 1510,
      "ం](https://te.wikipedia.org/wiki/": 1511,
      "](https://en.wikipedia.org/wiki/T": 1512,
      "stan": 1513,
      "oc": 1514,
      "के": 1515,
      "▁it": 1516,
      "nolog": 1517,
      "लेख": 1518,
      "▁[G": 1519,
      "77": 1520,
      "▁[1": 1521,
      "2007": 1522,
      "ult": 1523,
      "دو": 1524,
      "ంబ": 1525,
      "టి": 1526,
      "▁[अ": 1527,
      "ingh": 1528,
      "rid": 1529,
      "lish": 1530,
      "ford": 1531,
      "▁–": 1532,
      "هر": 1533,
      "▁१": 1534,
      "▁آهن": 1535,
      "ीय_": 1536,
      "s.": 1537,
      "ంలో": 1538,
      "ric": 1539,
      "template": 1540,
      "స్తాన్": 1541,
      ",_": 1542,
      "par": 1543,
      "_and_S": 1544,
      "ما": 1545,
      "ंद": 1546,
      "ंत्र": 1547,
      "ूल": 1548,
      "ेल": 1549,
      "▁ٽ": 1550,
      "▁\"अ": 1551,
      "▁ति": 1552,
      "▁ٻولي": 1553,
      "▁एक": 1554,
      "لطنت": 1555,
      "DP": 1556,
      "\n\n###": 1557,
      "978-0-5": 1558,
      ".pdf": 1559,
      "اب": 1560,
      "గు": 1561,
      "డు": 1562,
      "నే": 1563,
      "్చ": 1564,
      "▁[भारत": 1565,
      "▁पु": 1566,
      "000": 1567,
      "help": 1568,
      "विशेष:": 1569,
      "9.": 1570,
      "xford": 1571,
      "](https://en.wikipedia.org/wiki/D": 1572,
      "_E": 1573,
      ".pdf)": 1574,
      "ire": 1575,
      "ोग": 1576,
      "\")،": 1577,
      "lop": 1578,
      "ec": 1579,
      "ven": 1580,
      "మూ": 1581,
      "్రీ": 1582,
      "జాత": 1583,
      "عرب": 1584,
      "िण": 1585,
      "riti": 1586,
      "स्तान": 1587,
      "▁علائق": 1588,
      "DF": 1589,
      "hm": 1590,
      "ding": 1591,
      "▁5": 1592,
      "ari": 1593,
      "\\_and": 1594,
      "ath": 1595,
      "ex": 1596,
      "ove": 1597,
      "▁whi": 1598,
      "udd": 1599,
      "ss": 1600,
      "اڻ": 1601,
      "లా": 1602,
      "indi": 1603,
      "▁وڏ": 1604,
      "ంగా": 1605,
      "omp": 1606,
      "ficial": 1607,
      "4)": 1608,
      "▁errors": 1609,
      "▁([help": 1610,
      "▁errors\"))\n": 1611,
      "ant": 1612,
      "▁2011": 1613,
      "120": 1614,
      "5)": 1615,
      "▁خ": 1616,
      "▁ط": 1617,
      "ess": 1618,
      ").\n": 1619,
      "اصل": 1620,
      "سانچو": 1621,
      "250px-": 1622,
      "ure": 1623,
      "డ్": 1624,
      "ిల్": 1625,
      "▁జ": 1626,
      "MetcalfMetcalf": 1627,
      "html": 1628,
      "RI": 1629,
      "▁[D": 1630,
      "▁(PDF": 1631,
      "ران": 1632,
      "ीप": 1633,
      "▁ڊ": 1634,
      "▁[E": 1635,
      "▁[م": 1636,
      "ange": 1637,
      "ture": 1638,
      "port": 1639,
      "_templ": 1640,
      "gen": 1641,
      "▁error": 1642,
      "▁template": 1643,
      "no-t": 1644,
      "\\_no-t": 1645,
      "▁Sfn": 1646,
      "▁target": 1647,
      "fn_templ": 1648,
      "fn\\_no-t": 1649,
      "arget\\_errors": 1650,
      "ate_errors": 1651,
      "\\_Sfn\\_no-t": 1652,
      "_and_Sfn_templ": 1653,
      "\\_and\\_Sfn\\_no-t": 1654,
      "▁error:": 1655,
      "▁target:": 1656,
      "arget\\_errors\n": 1657,
      "_and_Sfn_template_errors": 1658,
      "\\_and\\_Sfn\\_no-target\\_errors\n": 1659,
      "IN": 1660,
      "ik": 1661,
      "rou": 1662,
      "లి": 1663,
      "▁\"स": 1664,
      "స్త్ర": 1665,
      "▁प्रदेश": 1666,
      "क्षिण": 1667,
      "▁un": 1668,
      "▁CITEREF": 1669,
      "File": 1670,
      "کڻ": 1671,
      "गमन": 1672,
      "थि": 1673,
      "▁[स": 1674,
      "▁جن": 1675,
      "▁مع": 1676,
      "▁ملڪ": 1677,
      "conomy": 1678,
      "\n\n[![](https://upload.wikimedia.org/wikipedia/commons/thumb/": 1679,
      "-p": 1680,
      "▁199": 1681,
      "ం\")": 1682,
      "కా": 1683,
      "ణా": 1684,
      "దక్ష": 1685,
      "ధిక": 1686,
      "▁r": 1687,
      "▁ప్రా": 1688,
      "▁వి": 1689,
      "ublic": 1690,
      "సియా": 1691,
      "జాతీయ": 1692,
      "2004": 1693,
      "od": 1694,
      "يم": 1695,
      "द्य": 1696,
      "नी": 1697,
      "ी_स": 1698,
      "▁\"R": 1699,
      "\")\n\n": 1700,
      "يشيا": 1701,
      "▁तिथि": 1702,
      "ties": 1703,
      "_and_": 1704,
      "ers": 1705,
      "ach": 1706,
      "cont": 1707,
      "fe": 1708,
      "world": 1709,
      "اڪ": 1710,
      "ँच": 1711,
      "यु": 1712,
      "ून": 1713,
      "2009": 1714,
      "10.": 1715,
      "▁సం": 1716,
      "▁చరిత్ర": 1717,
      "out": 1718,
      "ters": 1719,
      "\\_with": 1720,
      "▁sfn": 1721,
      "dit": 1722,
      "](https://en.wikipedia.org/wiki/R": 1723,
      "85": 1724,
      "ڊيا": 1725,
      "▁ख": 1726,
      "▁तिथि:": 1727,
      "ing\\_": 1728,
      "▁which": 1729,
      "డి": 1730,
      "](https://en.wikipedia.org/wiki/G": 1731,
      "ింది.": 1732,
      "times": 1733,
      "bot": 1734,
      "▁we": 1735,
      "inist": 1736,
      "وج": 1737,
      "his": 1738,
      "ائين": 1739,
      "▁भारतीय": 1740,
      "▁History": 1741,
      "country": 1742,
      "\\_with\\_": 1743,
      "ass": 1744,
      "mpire": 1745,
      "onstitution": 1746,
      "hy": 1747,
      "نيا": 1748,
      "जन": 1749,
      "ढ़": 1750,
      "धिक": 1751,
      "ంధ": 1752,
      "▁7": 1753,
      "▁at": 1754,
      "انگ": 1755,
      "స్త": 1756,
      "▁अभि": 1757,
      "▁देश": 1758,
      "▁రాజ్యం": 1759,
      "▁آهي.": 1760,
      "▁సామ్రాజ్యం": 1761,
      "వర్గ": 1762,
      "దక్షి": 1763,
      "▁अभिगमन": 1764,
      "](https://en.wikipedia.org/wiki/List_of_": 1765,
      "eg": 1766,
      "ree": 1767,
      "albot": 1768,
      "▁India's": 1769,
      "1_": 1770,
      "62": 1771,
      "kno": 1772,
      "धर्म": 1773,
      "्री": 1774,
      "्रोत": 1775,
      "▁South": 1776,
      "▁2014": 1777,
      "▁जन": 1778,
      "▁तथा": 1779,
      "▁\"भारतीय": 1780,
      "_and_Sfn_template_errors?action=edit&redlink=1": 1781,
      "7)": 1782,
      "to": 1783,
      "దీ": 1784,
      "ase": 1785,
      "#cite_ref-1": 1786,
      "#cite_note-1": 1787,
      "ండి": 1788,
      "ali": 1789,
      "territ": 1790,
      "vis": 1791,
      "ती": 1792,
      "त्": 1793,
      "बर": 1794,
      "▁च": 1795,
      "▁\"क": 1796,
      "▁हैं।": 1797,
      "978-0-521": 1798,
      "ritish": 1799,
      "File:": 1800,
      "▁li": 1801,
      "ah": 1802,
      "▁[T": 1803,
      "▁that": 1804,
      "33": 1805,
      "Asher": 1806,
      "sland": 1807,
      "हर": 1808,
      "ूर्व": 1809,
      "्ल": 1810,
      "తర": 1811,
      "వం": 1812,
      "▁బ": 1813,
      "▁[R": 1814,
      "velop": 1815,
      "1998": 1816,
      "ansk": 1817,
      "census": 1818,
      "oder": 1819,
      "▁pro": 1820,
      "-b": 1821,
      ".nic": 1822,
      "hist": 1823,
      "▁has": 1824,
      "0%": 1825,
      "ions": 1826,
      "ڪا": 1827,
      "वं": 1828,
      "▁\"N": 1829,
      "](https://hi.wikipedia.org/wiki/क": 1830,
      "▁وڌ": 1831,
      "स्तक": 1832,
      "▁لا": 1833,
      "पुस्तक": 1834,
      "▁[Archived": 1835,
      "विशेष:पुस्तक": 1836,
      "سانچو:": 1837,
      "्रोत/": 1838,
      "▁[Archived](https://": 1839,
      "2003": 1840,
      "AAQBAJ&pg=PA": 1841,
      "69": 1842,
      "empl": 1843,
      "ట్": 1844,
      "ది": 1845,
      "ిత": 1846,
      "RICS": 1847,
      "65": 1848,
      "iki": 1849,
      "ril": 1850,
      "anskrit": 1851,
      "سن": 1852,
      "من": 1853,
      "मान": 1854,
      "rap": 1855,
      "िका": 1856,
      "▁پي": 1857,
      "▁जा": 1858,
      "▁هڪ": 1859,
      "राष्ट्रीय": 1860,
      "द्ध": 1861,
      "usi": 1862,
      "any": 1863,
      "elhi": 1864,
      "\"](https://web.archive.org/web/201": 1865,
      "_చ": 1866,
      "दी": 1867,
      "रकार": 1868,
      "हार": 1869,
      "▁\"మ": 1870,
      "▁\"In": 1871,
      "](https://hi.wikipedia.org/wiki/स": 1872,
      "ission": 1873,
      "▁سلطنت": 1874,
      "▁ٿي": 1875,
      "पुर": 1876,
      "Dw": 1877,
      "\"](https://www.": 1878,
      "-g": 1879,
      "mer": 1880,
      "ten": 1881,
      "velopment": 1882,
      "ئين": 1883,
      "هو": 1884,
      "ٽي": 1885,
      "▁राज": 1886,
      "▁[क": 1887,
      "▁\"ब": 1888,
      "ous": 1889,
      "विश्व": 1890,
      "▁इस": 1891,
      "▁[N": 1892,
      "ury": 1893,
      "odern": 1894,
      ".sv": 1895,
      "▁ఎ": 1896,
      "▁[మ": 1897,
      "age/": 1898,
      "▁(సా.శ.పూ.": 1899,
      "World": 1900,
      "ts": 1901,
      "ug": 1902,
      "▁U": 1903,
      "▁[K": 1904,
      "▁मेला": 1905,
      "▁ڪيل": 1906,
      "](https://sd.wikipedia.org/wiki/ڀارت_ج": 1907,
      "▁حاصل": 1908,
      "زمرو:Harv": 1909,
      "co": 1910,
      "_Asia": 1911,
      "12": 1912,
      "oh": 1913,
      "गु": 1914,
      "ధ్య": 1915,
      "▁గ": 1916,
      "▁శ": 1917,
      "aste": 1918,
      "▁स्": 1919,
      "रालेख": 1920,
      "ياست": 1921,
      "ంద్ర": 1922,
      "United": 1923,
      "67": 1924,
      "lection": 1925,
      "2005": 1926,
      ".jpg/250px-": 1927,
      "▁[![": 1928,
      "ack": 1929,
      "na": 1930,
      "ost": 1931,
      "ा_": 1932,
      "िव": 1933,
      "▁\"प": 1934,
      "amil": 1935,
      "▁हु": 1936,
      "_की_स": 1937,
      "%20%20": 1938,
      "▁वर्": 1939,
      "web.archive.org/web/20": 1940,
      "_में": 1941,
      "](http://www.": 1942,
      "ridge": 1943,
      "▁\"H": 1944,
      "2014": 1945,
      "ైన": 1946,
      "pend": 1947,
      "](https://te.wikipedia.org/wiki/మ": 1948,
      "▁పే": 1949,
      "ంది.": 1950,
      "MetcalfMetcalf2006": 1951,
      "-m": 1952,
      "-s": 1953,
      "اپ": 1954,
      "مت": 1955,
      "وڪ": 1956,
      "ध्य": 1957,
      "्च": 1958,
      "▁[ब": 1959,
      "](https://hi.wikipedia.org/wiki/अ": 1960,
      "र्थ": 1961,
      "स्क": 1962,
      "ंग्रेज़": 1963,
      "रालेखित": 1964,
      "s\")": 1965,
      "arch": 1966,
      "ome": 1967,
      "known": 1968,
      ".nic.in/": 1969,
      "\"\n": 1970,
      "8)": 1971,
      "▁pe": 1972,
      "tical": 1973,
      "_by": 1974,
      "india.gov.in/": 1975,
      "qu": 1976,
      "ود": 1977,
      "ज्": 1978,
      "ట్ట": 1979,
      "హింద": 1980,
      "▁భారతదేశం": 1981,
      "](https://en.wikipedia.org/wiki/N": 1982,
      "▁2007": 1983,
      "ంగ్": 1984,
      "ద్ధ": 1985,
      "▁भी": 1986,
      "end": 1987,
      "0.": 1988,
      "PP": 1989,
      "_L": 1990,
      "val": 1991,
      "▁fi": 1992,
      "▁\"The": 1993,
      "▁18": 1994,
      "ames": 1995,
      "43": 1996,
      "59": 1997,
      "_भारत": 1998,
      "يت": 1999,
      "थान": 2000,
      "हास": 2001,
      "िट": 2002,
      "िश": 2003,
      "▁[978-1": 2004,
      "in-": 2005,
      "चित्र": 2006,
      "▁26": 2007,
      "rig": 2008,
      "ించ": 2009,
      "▁ఒ": 2010,
      "▁భాష": 2011,
      "▁[క": 2012,
      "ాల్": 2013,
      "](https://en.wikipedia.org/wiki/India#cite_ref-FOOTNOTE": 2014,
      "Singh": 2015,
      "la": 2016,
      "▁\"K": 2017,
      "doi": 2018,
      "ambridge": 2019,
      "ها": 2020,
      "द्र": 2021,
      "फ़": 2022,
      "ुख": 2023,
      "\")*": 2024,
      "](https://hi.wikipedia.org/wiki/ब": 2025,
      "▁St": 2026,
      "ms": 2027,
      "ope": 2028,
      "▁te": 2029,
      "ord": 2030,
      "Edit": 2031,
      "Page/": 2032,
      "▁count": 2033,
      "EditPage/": 2034,
      "Pages": 2035,
      "pril": 2036,
      "ram": 2037,
      "une": 2038,
      "do-": 2039,
      "]](https://te.wikipedia.org/wiki/భారతదేశం": 2040,
      "قت": 2041,
      "शिया": 2042,
      "చ్చ": 2043,
      "జీ": 2044,
      "ేంద్ర": 2045,
      "▁ڀ": 2046,
      "▁\"క": 2047,
      "tive": 2048,
      "isation": 2049,
      "](https://hi.wikipedia.org/wiki/भारत_में": 2050,
      "▁پر": 2051,
      "matics": 2052,
      "duc": 2053,
      "▁2": 2054,
      "lion": 2055,
      "RC": 2056,
      "▁\"Indian": 2057,
      "](https://en.wikipedia.org/wiki/In": 2058,
      "▁cent": 2059,
      "ligion": 2060,
      "yson": 2061,
      "ommission": 2062,
      "ीन": 2063,
      "](https://sd.wikipedia.org/wiki/ف": 2064,
      "▁सम": 2065,
      "▁سڀ": 2066,
      "▁हि": 2067,
      "ulture": 2068,
      "ternational": 2069,
      "त्तर": 2070,
      "/https://www.": 2071,
      "Pages\\_": 2072,
      "త్య": 2073,
      "బ్": 2074,
      "మీ": 2075,
      "▁[the": 2076,
      "](https://te.wikipedia.org/wiki/ద": 2077,
      "ood": 2078,
      "్యా": 2079,
      "uly": 2080,
      "రాష్ట్ర": 2081,
      "▁./వర్గ": 2082,
      "harma": 2083,
      "akistan": 2084,
      ".;": 2085,
      "dust": 2086,
      "मिल": 2087,
      "ुस": 2088,
      "orth": 2089,
      "▁सूची": 2090,
      "▁پار": 2091,
      "_language": 2092,
      "hand": 2093,
      "▁8": 2094,
      "](File:": 2095,
      "inent": 2096,
      "](https://en.wikipedia.org/wiki/H": 2097,
      "ashm": 2098,
      "▁its": 2099,
      "dition": 2100,
      "\n\n-": 2101,
      "▁reg": 2102,
      "roup": 2103,
      "8/": 2104,
      "oi": 2105,
      "ote": 2106,
      "usic": 2107,
      "Pages\\_us": 2108,
      "Oxford": 2109,
      "iv": 2110,
      "ير": 2111,
      "रु": 2112,
      "ूच": 2113,
      "ूर": 2114,
      "ంక": 2115,
      "ప్": 2116,
      "యు": 2117,
      "▁[प": 2118,
      "alth": 2119,
      "ليگ": 2120,
      "తంత్ర": 2121,
      "](https://te.wikipedia.org/wiki/భారతదేశం#cite_ref-": 2122,
      "దక్షిణ": 2123,
      "]](https://te.wikipedia.org/wiki/భారతదేశం#cite_note-": 2124,
      "cre": 2125,
      "ace": 2126,
      "inistry": 2127,
      "/p": 2128,
      "air": 2129,
      "alay": 2130,
      "uring": 2131,
      "▁2021": 2132,
      "emplate": 2133,
      "اد": 2134,
      "ا](https://sd.wikipedia.org/wiki/": 2135,
      "الي": 2136,
      "طان": 2137,
      "ڪر": 2138,
      "कर": 2139,
      "ते": 2140,
      "▁ڳ": 2141,
      "thnolog": 2142,
      "▁सरकार": 2143,
      "▁2019": 2144,
      "▁آهي،": 2145,
      "thnologue": 2146,
      "_F": 2147,
      "ili": 2148,
      "ograp": 2149,
      "Pages\\_using\\_": 2150,
      "/c": 2151,
      "56": 2152,
      "_స": 2153,
      "తము": 2154,
      "వే": 2155,
      "ష్": 2156,
      "ాన్": 2157,
      "▁[L": 2158,
      "erv": 2159,
      "స్క": 2160,
      "ిల్లీ": 2161,
      "mund": 2162,
      "ron": 2163,
      "▁25": 2164,
      "an_": 2165,
      "▁languages": 2166,
      "othermund": 2167,
      "ا_": 2168,
      "مون": 2169,
      "مين": 2170,
      "पाल": 2171,
      "हु": 2172,
      "ा:": 2173,
      "ैद": 2174,
      "ोक": 2175,
      "▁घ": 2176,
      "▁२": 2177,
      "▁هي": 2178,
      "▁تائين": 2179,
      "▁तक": 2180,
      "▁Hindu": 2181,
      "साँच": 2182,
      "किस्तान": 2183,
      "rg": 2184,
      "](https://en.wikipedia.org/wiki/K": 2185,
      "urope": 2186,
      "parame": 2187,
      "ulke": 2188,
      "radesh": 2189,
      "ef": 2190,
      "اي": 2191,
      "رد": 2192,
      "ندي": 2193,
      "ھي": 2194,
      "्ड": 2195,
      "జి": 2196,
      "ధాన": 2197,
      "బె": 2198,
      "▁[س": 2199,
      "\").\n-": 2200,
      "ారు": 2201,
      "▁sub": 2202,
      "▁سن": 2203,
      "](https://hi.wikipedia.org/wiki/भारतीय_": 2204,
      "▁اي": 2205,
      "▁ڪري": 2206,
      ".jpg": 2207,
      "▁కా": 2208,
      "AARC": 2209,
      "▁రాజ": 2210,
      "▁ad": 2211,
      "\"):": 2212,
      "ament": 2213,
      "▁se": 2214,
      "ical": 2215,
      "▁cont": 2216,
      "▁were": 2217,
      "▁v": 2218,
      "▁[H": 2219,
      "articles": 2220,
      "eb": 2221,
      "ater": 2222,
      "E0%": 2223,
      "न\")": 2224,
      "सम": 2225,
      "](https://www.": 2226,
      "▁\"L": 2227,
      "ined": 2228,
      "ائل": 2229,
      "ों_की_स": 2230,
      "श्चि": 2231,
      "sp": 2232,
      "article": 2233,
      "1,": 2234,
      "1/": 2235,
      "4%": 2236,
      "46": 2237,
      "uk": 2238,
      "దు": 2239,
      "మ్": 2240,
      "శ్": 2241,
      "inf": 2242,
      "](https://te.wikipedia.org/wiki/క": 2243,
      "197": 2244,
      "్యవ": 2245,
      "▁17": 2246,
      "Stein2010": 2247,
      "_చరిత్ర": 2248,
      "man": 2249,
      "ho": 2250,
      "ا\")": 2251,
      "ओं": 2252,
      "गण": 2253,
      "ीं": 2254,
      "ूप": 2255,
      "▁[In": 2256,
      "eneral": 2257,
      "ese": 2258,
      "](https://hi.wikipedia.org/wiki/प": 2259,
      "انڊ": 2260,
      "ريس": 2261,
      "]](https://hi.wikipedia.org/wiki/भारत#cite_note-FOOTNOTE": 2262,
      "\\_parame": 2263,
      "usin": 2264,
      "ign": 2265,
      "yste": 2266,
      "continent": 2267,
      "_In": 2268,
      "121": 2269,
      "68": 2270,
      "_the": 2271,
      "▁ha": 2272,
      "▁April": 2273,
      "mar": 2274,
      "national": 2275,
      "خاص": 2276,
      "रब": 2277,
      "्स": 2278,
      "ఢిల్లీ": 2279,
      "పంచ": 2280,
      "▁किया": 2281,
      "omb": 2282,
      "اني": 2283,
      "ారి": 2284,
      "low": 2285,
      "नाम": 2286,
      "▁دور": 2287,
      "_के_राज्य": 2288,
      "Stein1998": 2289,
      "ंदिर": 2290,
      "మూస": 2291,
      "Singh2009": 2292,
      "▁./వర్గం:": 2293,
      "▁le": 2294,
      "cies": 2295,
      "2008": 2296,
      "umber": 2297,
      "978-0-19-8": 2298,
      "▁2010": 2299,
      "%2C_": 2300,
      "ne": 2301,
      "ox": 2302,
      "_प्र": 2303,
      "رن": 2304,
      "قومي": 2305,
      "जी": 2306,
      "दक्षिण": 2307,
      "ष्": 2308,
      "ority": 2309,
      "▁15": 2310,
      "्वीप": 2311,
      "▁لڳ": 2312,
      "ڪومت": 2313,
      "▁هند": 2314,
      "ज्ञ": 2315,
      "-d": 2316,
      "2_": 2317,
      "Talbot": 2318,
      "Wiki": 2319,
      "AsherTalbot": 2320,
      ":S": 2321,
      "a,": 2322,
      "dom": 2323,
      "వు": 2324,
      "▁\"F": 2325,
      "▁\"భారతీయ": 2326,
      ")\n": 2327,
      "330": 2328,
      "ran": 2329,
      "▁par": 2330,
      "old": 2331,
      "ces": 2332,
      "بي": 2333,
      "ڌي": 2334,
      "ंजा": 2335,
      "ख्या": 2336,
      "वन": 2337,
      "▁si": 2338,
      "ork": 2339,
      "▁\"س": 2340,
      "▁جون": 2341,
      "ونڊ": 2342,
      "न्न": 2343,
      "ctor": 2344,
      "▁بر": 2345,
      "▁هو": 2346,
      "▁گه": 2347,
      "CS1": 2348,
      "news/": 2349,
      "▁खाना": 2350,
      "ों_की_सूची": 2351,
      "ंजाब": 2352,
      "-language": 2353,
      "india/": 2354,
      "89": 2355,
      "ail": 2356,
      "▁Asian": 2357,
      "countries": 2358,
      "oci": 2359,
      "on-": 2360,
      "▁July": 2361,
      "yn": 2362,
      "year": 2363,
      "او": 2364,
      "बसे": 2365,
      "ुल": 2366,
      "జన": 2367,
      "టు": 2368,
      "టె": 2369,
      "inis": 2370,
      "rip": 2371,
      "\\_country": 2372,
      "ling": 2373,
      "\n\nڀارت": 2374,
      "▁سي": 2375,
      "ेंद्र": 2376,
      "](https://hi.wikipedia.org/wiki/भारत_क": 2377,
      "هند": 2378,
      "▁پو": 2379,
      "▁చె": 2380,
      "నాయ": 2381,
      "–సా.శ.పూ.": 2382,
      "▁गया": 2383,
      "▁World": 2384,
      "▁ఆర్": 2385,
      "▁राज्यों": 2386,
      "obox": 2387,
      "పాలిత": 2388,
      "▁وڏي": 2389,
      "▁ప్రాంత": 2390,
      "ేంద్రపాలిత": 2391,
      "](https://te.wikipedia.org/wiki/దస్త్ర": 2392,
      "infobox": 2393,
      "07": 2394,
      "31": 2395,
      "data": 2396,
      "ris": 2397,
      "rary": 2398,
      "rib": 2399,
      "map": 2400,
      ".pn": 2401,
      "7-1": 2402,
      "C&pg=PA": 2403,
      "\")\n": 2404,
      "nglish": 2405,
      "aint": 2406,
      "hat": 2407,
      "sc": 2408,
      "▁pl": 2409,
      "ystem": 2410,
      "_م": 2411,
      "هلي": 2412,
      "ڀر": 2413,
      "चल": 2414,
      "बंध": 2415,
      "▁territ": 2416,
      "▁हो": 2417,
      "row": 2418,
      "▁नि": 2419,
      "▁ٿو": 2420,
      "न्द्र": 2421,
      "▁ٻيٽ": 2422,
      "▁[मूल": 2423,
      "श्रेणी:": 2424,
      "ियों": 2425,
      "ندڙ": 2426,
      "▁भाषा\")": 2427,
      "▁لاءِ": 2428,
      "](https://sd.wikipedia.org/wiki/فائل": 2429,
      "2-0)": 2430,
      "odi": 2431,
      "olog": 2432,
      "ఖ్య": 2433,
      "గో": 2434,
      "తో": 2435,
      "బి": 2436,
      "హి": 2437,
      "](https://en.wikipedia.org/wiki/L": 2438,
      "act": 2439,
      "entre": 2440,
      "ories": 2441,
      "స్కృ": 2442,
      "57": 2443,
      "aman": 2444,
      "▁New": 2445,
      "earch": 2446,
      "india.gov.in": 2447,
      "%E0%": 2448,
      "44": 2449,
      "_c": 2450,
      "aw": 2451,
      "اف": 2452,
      "سل": 2453,
      "ब्": 2454,
      "िन": 2455,
      "▁”": 2456,
      "▁सबसे": 2457,
      "▁ته": 2458,
      "ालय": 2459,
      "ople": 2460,
      "▁حص": 2461,
      "स्था": 2462,
      "चीन": 2463,
      "▁पुरालेखित": 2464,
      "▁جنهن": 2465,
      "▁सूची\")": 2466,
      "▁पुरालेखित।": 2467,
      "shi": 2468,
      "cience": 2469,
      "▁An": 2470,
      ".jpg)](File:": 2471,
      "ashmir": 2472,
      "_at": 2473,
      "cat": 2474,
      "rst": 2475,
      "unknown": 2476,
      "▁countries": 2477,
      "ta": 2478,
      "/http://www.": 2479,
      ".\"\n": 2480,
      "_ప": 2481,
      "a/": 2482,
      "fter": 2483,
      "les/": 2484,
      "ادي": 2485,
      "پي": 2486,
      "ڏکڻ": 2487,
      "ڙي": 2488,
      "जरा": 2489,
      "ेव": 2490,
      "ैन": 2491,
      "హా": 2492,
      "▁يون": 2493,
      "▁ను": 2494,
      "▁జాతీయ": 2495,
      "](https://hi.wikipedia.org/wiki/चित्र": 2496,
      "](https://sd.wikipedia.org/wiki/س": 2497,
      "▁وي": 2498,
      "▁ڪن": 2499,
      "▁**[": 2500,
      "ियाँ": 2501,
      "ాలు\")": 2502,
      "University": 2503,
      "▁حڪومت": 2504,
      "امل": 2505,
      "▁قومي": 2506,
      "▁دنيا": 2507,
      "क्ति": 2508,
      "▁చరిత్ర\")": 2509,
      "్యవస్థ": 2510,
      "▁پوءِ": 2511,
      "](https://te.wikipedia.org/wiki/దస్త్రం:": 2512,
      "/0": 2513,
      "je": 2514,
      "\").\n": 2515,
      "▁Aug": 2516,
      "▁Pro": 2517,
      "ower": 2518,
      "120px-": 2519,
      "ters#": 2520,
      "Pages\\_using\\_infobox": 2521,
      "\\_parameters#": 2522,
      "\\_country\\_with\\_": 2523,
      "▁August": 2524,
      "%28": 2525,
      "%29": 2526,
      ":EditPage/": 2527,
      "_m": 2528,
      "▁[W": 2529,
      "uman": 2530,
      "▁2016": 2531,
      "▁June": 2532,
      "ffair": 2533,
      "100": 2534,
      "▁[F": 2535,
      "▁(201": 2536,
      "▁mil": 2537,
      "ound": 2538,
      "▁2023": 2539,
      "semb": 2540,
      "argest": 2541,
      "dustry": 2542,
      "ڪم": 2543,
      "प्त": 2544,
      "ोर": 2545,
      "।[[": 2546,
      "▁9": 2547,
      "▁[उ": 2548,
      "▁[ڀارت": 2549,
      "](https://en.wikipedia.org/wiki/F": 2550,
      "▁وا": 2551,
      "▁जिस": 2552,
      "▁प्रा": 2553,
      "▁ڀارتي": 2554,
      "स्थान": 2555,
      "imes": 2556,
      "ongress": 2557,
      "▁Island": 2558,
      "اڪستان": 2559,
      "▁[Archived](https://web.archive.org/web/20": 2560,
      "ुसार": 2561,
      "-india": 2562,
      ".html": 2563,
      "▁[t": 2564,
      "-l": 2565,
      "ober": 2566,
      "డా": 2567,
      "దా": 2568,
      "బడ": 2569,
      "మే": 2570,
      "రణ": 2571,
      "▁లో": 2572,
      "line": 2573,
      "▁India,": 2574,
      "▁16": 2575,
      "▁కూ": 2576,
      "ాలు,": 2577,
      "peration": 2578,
      "isher": 2579,
      "▁రాష్ట్ర": 2580,
      "కిస్తాన్": 2581,
      "DwAAQBAJ&pg=PA": 2582,
      "_H": 2583,
      "las": 2584,
      "cient": 2585,
      "right": 2586,
      "87": 2587,
      "Rothermund": 2588,
      "_س": 2589,
      "aper": 2590,
      "امي": 2591,
      "دد": 2592,
      "ليا": 2593,
      "و\")": 2594,
      "ھن": 2595,
      "च्च": 2596,
      "ण्ड": 2597,
      "वरी": 2598,
      "▁[پ": 2599,
      "ley": 2600,
      "](https://hi.wikipedia.org/wiki/भारत#CITEREF": 2601,
      "▁2024": 2602,
      "_सं": 2603,
      "▁साथ": 2604,
      "ledge": 2605,
      "▁طور": 2606,
      "▁(PDF)": 2607,
      "▁وڌيڪ": 2608,
      "](https://hi.wikipedia.org/wiki/भारत_में_": 2609,
      "uch": 2610,
      "ugh": 2611,
      "▁24": 2612,
      "entral": 2613,
      "▁Commission": 2614,
      "▁Asia\")": 2615,
      "fficial": 2616,
      "ution": 2617,
      "ves": 2618,
      ":Harv\\_and\\_Sfn\\_no-target\\_errors\n": 2619,
      "▁this": 2620,
      ",000": 2621,
      "Kulke": 2622,
      "▁6": 2623,
      "lim": 2624,
      "▁10": 2625,
      "64": 2626,
      "_K": 2627,
      "oor": 2628,
      "uj": 2629,
      "تن": 2630,
      "ڏهن": 2631,
      "आई": 2632,
      "ाम": 2633,
      "▁ఈ": 2634,
      "▁ag": 2635,
      "▁భారత": 2636,
      "▁था": 2637,
      "▁धर्म": 2638,
      "▁\"श्रेणी:Harv": 2639,
      "](https://hi.wikipedia.org/wiki/श्रेणी:Harv": 2640,
      "1947": 2641,
      "▁सि": 2642,
      "याल": 2643,
      "](https://sd.wikipedia.org/wiki/ڀارت#cite_ref-": 2644,
      "త్రి": 2645,
      "ాలు](https://te.wikipedia.org/wiki/": 2646,
      "्वर": 2647,
      "▁./श्रेणी:Harv": 2648,
      "1994": 2649,
      "▁आधार": 2650,
      "▁संघ": 2651,
      "](Special:BookSources/978-1": 2652,
      "▁\"Special:BookSources/978-1": 2653,
      "पाकिस्तान": 2654,
      "▁([help](https://hi.wikipedia.org/wiki/श्रेणी:Harv": 2655,
      "▁پيدا": 2656,
      "▁./श्रेणी:Harv\\_and\\_Sfn\\_no-target\\_errors\n": 2657,
      "▁([help](https://hi.wikipedia.org/wiki/श्रेणी:Harv_and_Sfn_template_errors?action=edit&redlink=1": 2658,
      "-in-": 2659,
      "ombined": 2660,
      "NG": 2661,
      "han": 2662,
      "tember": 2663,
      "time": 2664,
      "ed.": 2665,
      "anges": 2666,
      "▁Pl": 2667,
      "▁En": 2668,
      "▁Empire": 2669,
      "eptember": 2670,
      "330px-": 2671,
      "unknown\\_parameters#": 2672,
      "Pages\\_using\\_infobox\\_country\\_with\\_": 2673,
      "Pages\\_using\\_infobox\\_country\\_with\\_unknown\\_parameters#": 2674,
      "Ar": 2675,
      "athe": 2676,
      "du": 2677,
      "▁21": 2678,
      "sid": 2679,
      "▁./Category:": 2680,
      "''": 2681,
      "79": 2682,
      "_ٻ": 2683,
      "tar": 2684,
      "की": 2685,
      "णा": 2686,
      "तंत्र": 2687,
      "्ला": 2688,
      "▁विश्व": 2689,
      "▁\"پ": 2690,
      "▁\"उ": 2691,
      "](https://hi.wikipedia.org/wiki/उ": 2692,
      "ارو": 2693,
      "्यट": 2694,
      "▁ڪيو": 2695,
      "-2)": 2696,
      "▁not": 2697,
      "برطان": 2698,
      "بادي": 2699,
      "श्मी": 2700,
      "▁ڊي": 2701,
      "خاص:BookSources/": 2702,
      "51": 2703,
      "_%28": 2704,
      "king": 2705,
      "iron": 2706,
      "KulkeRothermund": 2707,
      "_క": 2708,
      "are": 2709,
      "తు": 2710,
      "పతి": 2711,
      "▁ని": 2712,
      "▁స్థ": 2713,
      "▁[అ": 2714,
      "▁[ప": 2715,
      "▁\"భారతదేశం": 2716,
      "్రి": 2717,
      "ర్వ": 2718,
      "న్ని": 2719,
      "mple": 2720,
      "ctober": 2721,
      "▁October": 2722,
      "మిళ": 2723,
      "వంశ": 2724,
      "dus": 2725,
      "rin": 2726,
      "rac": 2727,
      "▁year": 2728,
      "one": 2729,
      "lear": 2730,
      "ats": 2731,
      "▁Population": 2732,
      "%2F": 2733,
      "uclear": 2734,
      ".jpg/120px-": 2735,
      "Sharma": 2736,
      "تر": 2737,
      "ظم": 2738,
      "وٽ": 2739,
      "ंब": 2740,
      "गढ़": 2741,
      "ज्य": 2742,
      "तमिल": 2743,
      "दा": 2744,
      "भी": 2745,
      "वे": 2746,
      "ांग": 2747,
      "ेर": 2748,
      "्रिट": 2749,
      "](https://sd.wikipedia.org/wiki/پ": 2750,
      "▁ايشيا": 2751,
      "▁ڪم": 2752,
      "radition": 2753,
      "▁अधिक": 2754,
      "▁پن": 2755,
      "ाली": 2756,
      "तिहास": 2757,
      "▁رياست": 2758,
      "]](https://sd.wikipedia.org/wiki/ڀارت#cite_note-FOOTNOTE": 2759,
      "▁१९": 2760,
      "▁آهن.": 2761,
      "युक्त": 2762,
      "स्कृत": 2763,
      "▁हिन्द": 2764,
      ".png)": 2765,
      "Dyson": 2766,
      "bi": 2767,
      "▁22": 2768,
      "▁government": 2769,
      "indust": 2770,
      "▁\"South": 2771,
      "ummit\")": 2772,
      "-20": 2773,
      "Combined": 2774,
      "liament": 2775,
      "cember": 2776,
      "depend": 2777,
      "ffairs": 2778,
      "viron": 2779,
      "here": 2780,
      "vironment": 2781,
      "3-0)": 2782,
      "IA": 2783,
      "JP": 2784,
      "_మ": 2785,
      "_re": 2786,
      "_భాష": 2787,
      "ocial": 2788,
      "رم": 2789,
      "عي": 2790,
      "لو": 2791,
      "وڊ": 2792,
      "يور": 2793,
      "کرد": 2794,
      "ڪس": 2795,
      "में": 2796,
      "रे": 2797,
      "वर्": 2798,
      "ఫ్": 2799,
      "▁స్": 2800,
      "▁[J": 2801,
      "▁[బ": 2802,
      "▁[స": 2803,
      "▁\"J": 2804,
      "▁\"گ": 2805,
      "▁\"అ": 2806,
      "\").[[": 2807,
      "ally": 2808,
      "India)": 2809,
      "▁मान": 2810,
      "urr": 2811,
      "న్నాయ": 2812,
      "▁కాల": 2813,
      "▁बाद": 2814,
      "्वार": 2815,
      "▁2009": 2816,
      "%20=": 2817,
      "▁به": 2818,
      "outh_Asia": 2819,
      "ులు](https://te.wikipedia.org/wiki/": 2820,
      "]](https://sd.wikipedia.org/wiki/ڀارت#cite_note-1": 2821,
      "िल्ल": 2822,
      "▁[↑](https://sd.wikipedia.org/wiki/ڀارت#cite_ref-1": 2823,
      "▁రై": 2824,
      "्राज्य": 2825,
      "engal": 2826,
      "హిందూ": 2827,
      "▁have": 2828,
      "](https://sd.wikipedia.org/wiki/فائل:": 2829,
      "210": 2830,
      "outledge": 2831,
      "ck": 2832,
      "▁us": 2833,
      "\")*.": 2834,
      "▁Pradesh": 2835,
      "▁1950": 2836,
      "ibrary": 2837,
      "uis": 2838,
      "▁[978-0-": 2839,
      "ini": 2840,
      "](https://en.wikipedia.org/wiki/J": 2841,
      "](https://en.wikipedia.org/wiki/Indian_": 2842,
      "▁into": 2843,
      "formatics": 2844,
      "_Press": 2845,
      "▁(PDF).": 2846,
      "/A": 2847,
      "_और": 2848,
      "ريا": 2849,
      "ظام": 2850,
      "قي": 2851,
      "هم": 2852,
      "ڊو": 2853,
      "एं": 2854,
      "शास": 2855,
      "▁कार": 2856,
      "▁(20": 2857,
      "1950": 2858,
      "▁India:": 2859,
      "\n\n|": 2860,
      "▁ما": 2861,
      "▁موج": 2862,
      "chnolog": 2863,
      "क्षेत्र": 2864,
      "माण": 2865,
      "ड़ा": 2866,
      "▁शास": 2867,
      "म्ब": 2868,
      "▁साम": 2869,
      "▁यह": 2870,
      "▁[भारतीय": 2871,
      "history": 2872,
      "ographi": 2873,
      "ज्ञान": 2874,
      "](https://hi.wikipedia.org/wiki/चित्र:": 2875,
      "2-": 2876,
      "_4": 2877,
      "estern": 2878,
      "▁comp": 2879,
      "also": 2880,
      "61": 2881,
      "Template": 2882,
      "hen": 2883,
      "ఆసియా": 2884,
      "ద్ర": 2885,
      "భూ": 2886,
      "మె": 2887,
      "య్య": 2888,
      "ర్య": 2889,
      "▁ల": 2890,
      "▁\"ప": 2891,
      "▁\"బ": 2892,
      "▁\"స": 2893,
      "\")**": 2894,
      "annic": 2895,
      "eri": 2896,
      "▁their": 2897,
      "sical": 2898,
      "▁ch": 2899,
      "▁[↑](https://te.wikipedia.org/wiki/భారతదేశం#cite_ref-": 2900,
      "ritannic": 2901,
      ".jpg)](https://te.wikipedia.org/wiki/దస్త్రం:": 2902,
      "త్త": 2903,
      "▁during": 2904,
      "▁అధిక": 2905,
      "▁ప్రదేశ్": 2906,
      "ప్రదేశ్": 2907,
      "](Special:BookSources/978": 2908,
      "▁language\")": 2909,
      "_summit": 2910,
      "▁నుండి": 2911,
      "sembly": 2912,
      "Dyson2018": 2913,
      "న్నాయి.": 2914,
      "\".": 2915,
      "▁[3": 2916,
      "▁September": 2917,
      "auth": 2918,
      "CO": 2919,
      "_भाषा": 2920,
      "तर": 2921,
      "ाट": 2922,
      "▁ھ": 2923,
      "▁थ": 2924,
      "▁\"विशेष:पुस्तक": 2925,
      "](https://hi.wikipedia.org/wiki/ISBN_(identifier)": 2926,
      "](https://hi.wikipedia.org/wiki/विशेष:पुस्तक": 2927,
      "ارب": 2928,
      "▁स्रोत/": 2929,
      "ڀارت\nCategory:": 2930,
      "etwe": 2931,
      "▁Chin": 2932,
      "▁पा": 2933,
      "▁مش": 2934,
      "](https://hi.wikipedia.org/wiki/भारत_के_": 2935,
      "▁او": 2936,
      "](https://sd.wikipedia.org/wiki/ڀارت#CITEREF": 2937,
      "230": 2938,
      "ayan": 2939,
      "लाई": 2940,
      "▁./श्रेणी:": 2941,
      "_स्रोत/": 2942,
      "راع": 2943,
      "راف": 2944,
      "▁[ISBN](https://hi.wikipedia.org/wiki/ISBN_(identifier)": 2945,
      "يشن": 2946,
      "_के_आ": 2947,
      "▁लि": 2948,
      "▁./زمرو:Pages\\_using\\_infobox\\_country\\_with\\_unknown\\_parameters#": 2949,
      "...": 2950,
      "साँचा:": 2951,
      "श्चिम": 2952,
      "%E0%A": 2953,
      "ांग्ला": 2954,
      "](https://hi.wikipedia.org/wiki/विशेष:पुस्तक_स्रोत/": 2955,
      "etween": 2956,
      "-c": 2957,
      "jab": 2958,
      "p?": 2959,
      "tal": 2960,
      "▁al": 2961,
      "anisation": 2962,
      "▁Archived": 2963,
      "ural": 2964,
      "ional": 2965,
      "▁Press\").": 2966,
      "times.com/": 2967,
      "▁first": 2968,
      "usiness": 2969,
      "_19": 2970,
      "off": 2971,
      "▁Ch": 2972,
      ".jpg)\n\n": 2973,
      "pp": 2974,
      "ya": 2975,
      "olitical": 2976,
      "gar": 2977,
      "sha": 2978,
      "اش": 2979,
      "رين": 2980,
      "سڪر": 2981,
      "وڪي": 2982,
      "کي": 2983,
      "ڻي": 2984,
      "ंप": 2985,
      "मुख": 2986,
      "ణి": 2987,
      "తమిళ": 2988,
      "మైన": 2989,
      "హార": 2990,
      "ోర్": 2991,
      "▁رو": 2992,
      "▁राष्ट्रीय": 2993,
      "▁\"ఇ": 2994,
      "▁\"భారత": 2995,
      "](https://te.wikipedia.org/wiki/బ": 2996,
      "▁Sh": 2997,
      "▁[↑](https://hi.wikipedia.org/wiki/भारत": 2998,
      "▁जु": 2999,
      "ديش": 3000,
      "▁है,": 3001,
      "ेश्वर": 3002,
      "▁మొ": 3003,
      "నాగ": 3004,
      "త్తర": 3005,
      "ులు\")": 3006,
      "eport": 3007,
      "▁उप": 3008,
      "▁ڏکڻ": 3009,
      "▁यु": 3010,
      "त्प": 3011,
      "गुजरा": 3012,
      "ूचना": 3013,
      "ారు.": 3014,
      "శ్మీ": 3015,
      "మూస:": 3016,
      "_प्रदेश": 3017,
      "्रिटिश": 3018,
      "سڪرت": 3019,
      "-re": 3020,
      "9)": 3021,
      "gy": 3022,
      "▁Re": 3023,
      "IM": 3024,
      "iver": 3025,
      "van": 3026,
      "▁wi": 3027,
      "▁also": 3028,
      ".org/10.": 3029,
      "anu": 3030,
      "▁Se": 3031,
      "▁2018": 3032,
      "▁world": 3033,
      "ight": 3034,
      "▁2006": 3035,
      "-80": 3036,
      ".jpg/330px-": 3037,
      "udden": 3038,
      "doi.org/10.": 3039,
      "chnology": 3040,
      "oast": 3041,
      "son": 3042,
      "▁en": 3043,
      "▁system": 3044,
      "lob": 3045,
      "ourt": 3046,
      "ticles": 3047,
      "ill": 3048,
      "_Indian_": 3049,
      "](Special:BookSources/978-0-": 3050,
      "▁\"Special:BookSources/978-0-": 3051,
      "hism": 3052,
      "4-0)": 3053,
      "_पर": 3054,
      "آم": 3055,
      "مو": 3056,
      "نڊ": 3057,
      "काल": 3058,
      "बाद": 3059,
      "रक्ष": 3060,
      "वाद": 3061,
      "ाष्ट्र": 3062,
      "ागर": 3063,
      "ोर्": 3064,
      "–1": 3065,
      "▁[گ": 3066,
      "▁[सं": 3067,
      "▁\"زمرو:Harv": 3068,
      "](https://sd.wikipedia.org/wiki/زمرو:Harv": 3069,
      "▁population": 3070,
      "▁وچ": 3071,
      "िक्ष": 3072,
      "_मेला": 3073,
      "नेमा": 3074,
      "▁./زمرو:Harv\\_and\\_Sfn\\_no-target\\_errors\n": 3075,
      "धार_पर": 3076,
      "▁([help](https://sd.wikipedia.org/wiki/زمرو:Harv": 3077,
      "gency": 3078,
      "द्योग": 3079,
      "हाराष्ट्र": 3080,
      "_के_आधार_पर": 3081,
      "▁([help](https://sd.wikipedia.org/wiki/زمرو:Harv_and_Sfn_template_errors?action=edit&redlink=1": 3082,
      "_के_आधार_पर_भारत": 3083,
      "_O": 3084,
      "ssembly": 3085,
      "ute": 3086,
      "▁per": 3087,
      "wing": 3088,
      "▁[e": 3089,
      "▁[v": 3090,
      "andhi": 3091,
      "olper": 3092,
      ".gov/": 3093,
      "▁December": 3094,
      "olpert": 3095,
      "-19": 3096,
      "1-0)": 3097,
      "219": 3098,
      "88": 3099,
      "_20": 3100,
      "por": 3101,
      "tates": 3102,
      "శా": 3103,
      "ైనా": 3104,
      "▁[ఇ": 3105,
      "▁\"జ": 3106,
      "](https://te.wikipedia.org/wiki/ఇ": 3107,
      "](https://te.wikipedia.org/wiki/స": 3108,
      "ool": 3109,
      "adu": 3110,
      "భారత_": 3111,
      "term": 3112,
      "unjab": 3113,
      "రాజ": 3114,
      "లో](https://te.wikipedia.org/wiki/": 3115,
      "రిజ": 3116,
      "క్కు": 3117,
      "ండ్": 3118,
      "978-0-19-88": 3119,
      "స్కృతి": 3120,
      "NC": 3121,
      "_3": 3122,
      "_d": 3123,
      "dle": 3124,
      "rish": 3125,
      "amp": 3126,
      "ument": 3127,
      "▁March": 3128,
      "able": 3129,
      "inister": 3130,
      "pib": 3131,
      "ا،": 3132,
      "غير": 3133,
      "نع": 3134,
      "وار": 3135,
      "एशिया": 3136,
      "▁Y": 3137,
      "▁ڇ": 3138,
      "▁\"O": 3139,
      "▁स्व": 3140,
      "▁جڏهن": 3141,
      "▁मंदिर": 3142,
      "्यव": 3143,
      "▁مق": 3144,
      "▁جيڪو": 3145,
      "ريزي": 3146,
      "▁Metcalf": 3147,
      "▁दक्षिण": 3148,
      "ंगा": 3149,
      "منڊ": 3150,
      "▁ڪيل.\n": 3151,
      "ंग्रेज़ी": 3152,
      "▁ڀڳ": 3153,
      "▁subcontinent": 3154,
      "▁पुरालेखित।.": 3155,
      "Sharma2007": 3156,
      "▁जुलाई": 3157,
      "_के_आधार_पर_भारत_के_राज्य": 3158,
      "EO": 3159,
      "WEO": 3160,
      "_W": 3161,
      "c=": 3162,
      "](https://books.google.com/books?id=": 3163,
      "▁[I": 3164,
      "ond": 3165,
      "▁Census": 3166,
      "▁1.": 3167,
      "rop": 3168,
      "▁2013": 3169,
      "▁form": 3170,
      "▁Development": 3171,
      "-language\\_": 3172,
      "University_Press": 3173,
      "Articles": 3174,
      "2/": 3175,
      "_9": 3176,
      "▁ac": 3177,
      "encies": 3178,
      "ature": 3179,
      "iddle": 3180,
      ".gov.in/": 3181,
      "▁2014.\n": 3182,
      "censusindia.gov.in/": 3183,
      "▁Commissioner": 3184,
      ")\n-": 3185,
      "▁$": 3186,
      "▁Act": 3187,
      "ade": 3188,
      "▁National": 3189,
      "umbai": 3190,
      "harat": 3191,
      "rade": 3192,
      ".svg": 3193,
      ".as": 3194,
      "6).": 3195,
      "f/": 3196,
      "lang": 3197,
      "rof": 3198,
      "ا?action=edit&redlink=1": 3199,
      "بنگ": 3200,
      "جا": 3201,
      "جن": 3202,
      "ختي": 3203,
      "وان": 3204,
      "तेल": 3205,
      "ली": 3206,
      "ल\")": 3207,
      "ीस": 3208,
      "००": 3209,
      "ం?action=edit&redlink=1": 3210,
      "చే": 3211,
      "బా": 3212,
      "▁ri": 3213,
      "▁23": 3214,
      "▁ru": 3215,
      "▁नाम": 3216,
      "▁[జ": 3217,
      "tex": 3218,
      "int": 3219,
      "resid": 3220,
      "omen": 3221,
      "▁جه": 3222,
      "▁India\"),": 3223,
      "▁पूर्व": 3224,
      "ينڊ": 3225,
      "▁ور": 3226,
      "▁పా": 3227,
      "▁اڳ": 3228,
      "raven": 3229,
      "▁अप": 3230,
      "नाग": 3231,
      "▁వా": 3232,
      "▁بڻ": 3233,
      "ండు": 3234,
      "▁विक": 3235,
      "▁చూ": 3236,
      "త్వ": 3237,
      "يشت": 3238,
      "ప్రధాన": 3239,
      "ember": 3240,
      "▁रूप": 3241,
      "▁[↑](https://hi.wikipedia.org/wiki/भारत#cite_ref-FOOTNOTE": 3242,
      "▁తే": 3243,
      "▁ٻوليون": 3244,
      "عرب_": 3245,
      "▁देशों": 3246,
      "سنڌ": 3247,
      "7/": 3248,
      "how": 3249,
      "uri": 3250,
      "▁[[": 3251,
      "▁2017": 3252,
      "epublic": 3253,
      "fr": 3254,
      "rime": 3255,
      "▁13": 3256,
      "_of_the": 3257,
      "form": 3258,
      "▁been": 3259,
      "IMF": 3260,
      "-f": 3261,
      ".india": 3262,
      "aut": 3263,
      "mu": 3264,
      "rans": 3265,
      "▁28": 3266,
      "kim": 3267,
      "ann": 3268,
      "eser": 3269,
      "▁cons": 3270,
      "▁but": 3271,
      "▁2020": 3272,
      "Harle": 3273,
      "-81": 3274,
      "2905": 3275,
      "▁[*A": 3276,
      "ritannica": 3277,
      "978-0-19-882905": 3278,
      "978-0-19-882905-8": 3279,
      "_ڪ": 3280,
      "k/": 3281,
      "تا": 3282,
      "دڙ": 3283,
      "هين": 3284,
      "ंक": 3285,
      "टे": 3286,
      "धी": 3287,
      "सद": 3288,
      "ोन": 3289,
      "▁ز": 3290,
      "▁ليگ": 3291,
      "ार्": 3292,
      "▁कि": 3293,
      "▁Cambridge": 3294,
      "▁مح": 3295,
      "▁between": 3296,
      "ंगाल": 3297,
      "▁तट": 3298,
      "▁न्या": 3299,
      "ublish": 3300,
      "▁رهي": 3301,
      "▁एवं": 3302,
      "apit": 3303,
      "doc": 3304,
      "انگريس": 3305,
      "مينٽ": 3306,
      "श्मीर": 3307,
      "%E0%A4%": 3308,
      "्यवस्था": 3309,
      "censusindia.gov.in/2011": 3310,
      "129": 3311,
      "75": 3312,
      "oon": 3313,
      "▁ar": 3314,
      "▁other": 3315,
      "ird": 3316,
      "_De": 3317,
      "ligi": 3318,
      ")\n\n": 3319,
      ":[": 3320,
      "CE": 3321,
      "_I": 3322,
      "_సా": 3323,
      "_University_Press": 3324,
      "fric": 3325,
      "ంప": 3326,
      "కో": 3327,
      "గణ": 3328,
      "దిన": 3329,
      "నై": 3330,
      "రీ": 3331,
      "▁[![](https://upload.wikimedia.org/wikipedia/commons/thumb/": 3332,
      "▁\"W": 3333,
      "▁\"చ": 3334,
      "ofindia": 3335,
      "](https://te.wikipedia.org/wiki/జ": 3336,
      "ారం": 3337,
      "▁more": 3338,
      "str": 3339,
      "▁క్రీ": 3340,
      "క్‌": 3341,
      "నికి": 3342,
      "▁2022": 3343,
      "ల్ల": 3344,
      "ంగీ": 3345,
      "▁సి": 3346,
      "నాభా": 3347,
      "ortal": 3348,
      "](https://en.wikipedia.org/wiki/South": 3349,
      "జాబి": 3350,
      "view": 3351,
      "▁శా": 3352,
      "▁భాష\")": 3353,
      "బెంగ": 3354,
      "ujar": 3355,
      "జాబితా": 3356,
      "pr": 3357,
      "▁<": 3358,
      "▁es": 3359,
      "iss": 3360,
      "edu": 3361,
      "▁bec": 3362,
      "avid": 3363,
      "500": 3364,
      "CN": 3365,
      "ft": 3366,
      "s-": 3367,
      "مان": 3368,
      "هري": 3369,
      "ڙو": 3370,
      "▁را": 3371,
      "▁[न": 3372,
      "▁\"द": 3373,
      "▁केंद्र": 3374,
      "edic": 3375,
      "atus": 3376,
      "▁سال": 3377,
      "▁ويو": 3378,
      "▁واري": 3379,
      "्तर": 3380,
      "▁ڪئي": 3381,
      "▁Modern": 3382,
      ".com.p": 3383,
      "भाग": 3384,
      "▁هئي": 3385,
      "▁ٿيو": 3386,
      ".ph": 3387,
      "▁انگ": 3388,
      "books.google.com.p": 3389,
      "संख्या": 3390,
      "▁[↑](https://sd.wikipedia.org/wiki/ڀارت#cite_ref-FOOTNOTE": 3391,
      "▁अनुसार": 3392,
      "▁प्रदेश\")": 3393,
      "▁स्थ": 3394,
      "crease": 3395,
      "راعظم": 3396,
      "k/books?id=": 3397,
      "books.google.com.pk/books?id=": 3398,
      "58": 3399,
      "71": 3400,
      "hol": 3401,
      "oth": 3402,
      "pl": 3403,
      "▁[Indian": 3404,
      "ince": 3405,
      "1970": 3406,
      "rab": 3407,
      "▁East": 3408,
      "berg": 3409,
      "ustral": 3410,
      "▁century": 3411,
      "ology": 3412,
      ".indiatimes.com/": 3413,
      "ok": 3414,
      "▁over": 3415,
      "tionary": 3416,
      "▁2012": 3417,
      "▁May": 3418,
      "▁2004": 3419,
      ".b": 3420,
      "/S": 3421,
      "4-7": 3422,
      "73": 3423,
      "81": 3424,
      "a-": 3425,
      "rm": 3426,
      "▁0.": 3427,
      "-17": 3428,
      "▁spe": 3429,
      "▁1947": 3430,
      "_Centre": 3431,
      "cyc": 3432,
      "ative": 3433,
      "▁years": 3434,
      "anuary": 3435,
      "lad": 3436,
      "ئن": 3437,
      "خت": 3438,
      "دار": 3439,
      "دهلي": 3440,
      "ضمون": 3441,
      "نا": 3442,
      "و_": 3443,
      "एँ": 3444,
      "एस": 3445,
      "खा": 3446,
      "गो": 3447,
      "चे": 3448,
      "लि": 3449,
      "सी": 3450,
      "ैक": 3451,
      "ोड़": 3452,
      "చల్": 3453,
      "యన్": 3454,
      "షు": 3455,
      "ూర్": 3456,
      "▁27": 3457,
      "▁[చ": 3458,
      "▁[భారత": 3459,
      "▁[భారతీయ": 3460,
      "▁[हिन्द": 3461,
      "▁\"I": 3462,
      "ार्ट": 3463,
      "](https://te.wikipedia.org/wiki/ప": 3464,
      "](https://te.wikipedia.org/wiki/భారతీయ": 3465,
      "ార్ట": 3466,
      "▁मूल": 3467,
      "▁Con": 3468,
      "▁Constitution": 3469,
      "▁من": 3470,
      "▁ماڻ": 3471,
      "ాలయ": 3472,
      "fic": 3473,
      "▁music": 3474,
      "▁after": 3475,
      "विधान": 3476,
      "▁जो": 3477,
      "ورٽ": 3478,
      "క్క": 3479,
      "▁बहु": 3480,
      "▁వ్యవస్థ": 3481,
      "الا": 3482,
      "▁सेना": 3483,
      "▁English": 3484,
      "▁ము": 3485,
      "ండో": 3486,
      "ముంబ": 3487,
      "సిన": 3488,
      "▁dance": 3489,
      "ड़ी": 3490,
      "ినల్": 3491,
      "म्बर": 3492,
      "ద్ద": 3493,
      "▁ఉన్న": 3494,
      "_جي_": 3495,
      "زيراعظم": 3496,
      "▁भू": 3497,
      "పాకిస్తాన్": 3498,
      "rick": 3499,
      "ompany": 3500,
      "धिकार": 3501,
      "ంధీ": 3502,
      "▁ఒక": 3503,
      "▁ఒరిజ": 3504,
      "uropean": 3505,
      "्यटन": 3506,
      "వంశం": 3507,
      "lobal": 3508,
      "▁తేదీ": 3509,
      "ార్టీ": 3510,
      "▁ఒరిజినల్": 3511,
      "6/": 3512,
      "_11": 3513,
      "ttar": 3514,
      "eration": 3515,
      "dex": 3516,
      "▁region": 3517,
      ".IN": 3518,
      "1–": 3519,
      "ID": 3520,
      "TR": 3521,
      "Vi": 3522,
      "adi": 3523,
      "ned": 3524,
      "▁29": 3525,
      "2023": 3526,
      "▁ab": 3527,
      "cture": 3528,
      "▁January": 3529,
      "▁(identifier)\"):[": 3530,
      "▁[Stein": 3531,
      "▁state": 3532,
      "WEO.IN": 3533,
      "langoff": 3534,
      "IMFWEO.IN": 3535,
      "-23": 3536,
      "eh": 3537,
      "emple": 3538,
      "lam": 3539,
      "pur": 3540,
      "wart": 3541,
      "zberg": 3542,
      "▁k": 3543,
      "ped": 3544,
      "ones": 3545,
      "andard": 3546,
      "ash": 3547,
      "2001": 3548,
      "▁1,": 3549,
      "chwart": 3550,
      "▁who": 3551,
      "▁number": 3552,
      "ommon": 3553,
      "-to-": 3554,
      "▁Press.": 3555,
      "countries_by": 3556,
      "chwartzberg": 3557,
      "2).": 3558,
      "76": 3559,
      "_13": 3560,
      "eth": 3561,
      "فو": 3562,
      "چي": 3563,
      "چين": 3564,
      "तिक": 3565,
      "दू": 3566,
      "भू": 3567,
      "श्री": 3568,
      "ीत": 3569,
      "ील": 3570,
      "tel": 3571,
      "▁\"ڪ": 3572,
      "](https://en.wikipedia.org/wiki/W": 3573,
      "](https://sd.wikipedia.org/wiki/گ": 3574,
      "2000": 3575,
      "ياد": 3576,
      "▁ڪيا": 3577,
      "▁آھي": 3578,
      "▁آبادي": 3579,
      "هندي": 3580,
      "नाथ": 3581,
      "_क्षेत्र": 3582,
      "▁*The": 3583,
      "الو": 3584,
      "▁نس": 3585,
      "▁انهن": 3586,
      "▁Oxford": 3587,
      "▁एशिया": 3588,
      "سٽي": 3589,
      "رڪاري": 3590,
      "ruary": 3591,
      "▁अन्य": 3592,
      "ovement": 3593,
      "ebruary": 3594,
      "गुजरात": 3595,
      "ختيار": 3596,
      "-21": 3597,
      "3/": 3598,
      "4/": 3599,
      "kar": 3600,
      "lag": 3601,
      "an\")": 3602,
      "tig": 3603,
      "2017": 3604,
      "life": 3605,
      "▁Congress": 3606,
      "▁Th": 3607,
      "▁Times": 3608,
      "▁For": 3609,
      "▁national": 3610,
      "_New": 3611,
      "National_In": 3612,
      "%7": 3613,
      "*,": 3614,
      "UN": 3615,
      "az": 3616,
      "has": 3617,
      "ner": 3618,
      "జ్": 3619,
      "వరి": 3620,
      "శ్చ": 3621,
      "ిన్న": 3622,
      "ెల": 3623,
      "▁30": 3624,
      "order": 3625,
      "▁[Metcalf": 3626,
      "▁\"భారతదేశ": 3627,
      "్రె": 3628,
      "att": 3629,
      "▁part": 3630,
      "files/": 3631,
      "anglad": 3632,
      "▁most": 3633,
      "ourn": 3634,
      "olk": 3635,
      "నిస్తాన్": 3636,
      "▁2003": 3637,
      "▁Nations": 3638,
      "▁మధ్య": 3639,
      "](https://te.wikipedia.org/wiki/భారతదేశంలో": 3640,
      "▁ఉంది.": 3641,
      "▁ఉన్నాయి.": 3642,
      "స్థాన్": 3643,
      "athak": 3644,
      "▁పేజీ": 3645,
      "మ్మూ": 3646,
      "lassical": 3647,
      "▁\"భారతదేశంలో": 3648,
      "▁చూసిన": 3649,
      "▁తేదీ:": 3650,
      "శ్చి": 3651,
      "angladesh": 3652,
      "▁పేజీని": 3653,
      ".n": 3654,
      "8-0)": 3655,
      "e/": 3656,
      "rar": 3657,
      "pect": 3658,
      "arb": 3659,
      "fice": 3660,
      "istrar": 3661,
      "26)": 3662,
      "▁Hindi": 3663,
      "▁states": 3664,
      "obb": 3665,
      "ovember": 3666,
      "egistrar": 3667,
      "-le": 3668,
      "5-0)": 3669,
      "d/": 3670,
      "بب": 3671,
      "بو": 3672,
      "وس": 3673,
      "अन": 3674,
      "जय": 3675,
      "टक": 3676,
      "पी": 3677,
      "पति": 3678,
      "मह": 3679,
      "रो": 3680,
      "ेस": 3681,
      "▁ड": 3682,
      "▁फ": 3683,
      "▁all": 3684,
      "](https://doi.org/10.": 3685,
      "▁[آ": 3686,
      "▁[ا": 3687,
      "▁[ج": 3688,
      "▁[ڪ": 3689,
      "▁[द": 3690,
      "انون": 3691,
      "▁official": 3692,
      "rim": 3693,
      "▁سبب": 3694,
      "▁جيڪي": 3695,
      "ice": 3696,
      "ross": 3697,
      "िया\")": 3698,
      "-40": 3699,
      "▁गण": 3700,
      "म्म": 3701,
      "▁صدر": 3702,
      "▁صنع": 3703,
      "ी_भाषा": 3704,
      "हिन्दी": 3705,
      "▁معيشت": 3706,
      "वंश": 3707,
      "▁जाता": 3708,
      "tent": 3709,
      "](https://sd.wikipedia.org/wiki/ڀارت_جي_": 3710,
      "▁वर्ष": 3711,
      "ैदान": 3712,
      "ليامينٽ": 3713,
      "तंत्रता": 3714,
      "वेब": 3715,
      "formatics_Centre": 3716,
      "▁साम्राज्य": 3717,
      "द्योगिक": 3718,
      "▁<http": 3719,
      "National_Informatics_Centre": 3720,
      "4–": 3721,
      "7,": 3722,
      "Hindi": 3723,
      "tro": 3724,
      "tary": 3725,
      "▁art": 3726,
      "theast": 3727,
      "come": 3728,
      "▁tw": 3729,
      "chin": 3730,
      "union": 3731,
      "▁election": 3732,
      "▁[South": 3733,
      "olicy": 3734,
      "▁[2](https://en.wikipedia.org/wiki/India#cite_ref-FOOTNOTE": 3735,
      "▁[1](https://en.wikipedia.org/wiki/India#cite_ref-FOOTNOTE": 3736,
      "ikshi": 3737,
      "▁territories": 3738,
      "ikshit": 3739,
      "86": 3740,
      "city": 3741,
      "▁Talbot": 3742,
      "onstituent": 3743,
      "contain": 3744,
      "ographic": 3745,
      "-26": 3746,
      "/5": 3747,
      "BC": 3748,
      "Ethnologue": 3749,
      "Fisher": 3750,
      "_f": 3751,
      "orther": 3752,
      "alley": 3753,
      "ased": 3754,
      "site": 3755,
      "wealth": 3756,
      "ics": 3757,
      "▁[\"C": 3758,
      "ed.).": 3759,
      "Fisher2018": 3760,
      "orthern": 3761,
      "ES": 3762,
      "Empire": 3763,
      "_territ": 3764,
      "cent": 3765,
      "gram": 3766,
      "lations": 3767,
      "oy": 3768,
      "s.[[": 3769,
      "va": 3770,
      "بن": 3771,
      "ترڪ": 3772,
      "رح": 3773,
      "سا": 3774,
      "مار": 3775,
      "ٽا": 3776,
      "پني": 3777,
      "ٿي": 3778,
      "पे": 3779,
      "मंत्र": 3780,
      "रवरी": 3781,
      "िज़": 3782,
      "ेट": 3783,
      "షన్": 3784,
      "హ్": 3785,
      "ెలు": 3786,
      "oram": 3787,
      "▁[इ": 3788,
      "▁[पु": 3789,
      "▁[doi": 3790,
      "▁\"इ": 3791,
      "▁\"عرب": 3792,
      "ering": 3793,
      "asia": 3794,
      "](https://te.wikipedia.org/wiki/అ": 3795,
      "▁India.": 3796,
      "▁मु": 3797,
      "agar": 3798,
      "يندو": 3799,
      "▁وقت": 3800,
      "ائن": 3801,
      "विज्ञान": 3802,
      "ाला": 3803,
      "ديءَ": 3804,
      "రియా": 3805,
      "▁نظام": 3806,
      "▁మార్": 3807,
      "▁[\"India": 3808,
      ".jpg)\n-": 3809,
      "▁انڊيا": 3810,
      "]](https://hi.wikipedia.org/wiki/भारत#cite_note-1": 3811,
      "ड़े": 3812,
      "▁उत्तर": 3813,
      "▁گڏ": 3814,
      "نگا": 3815,
      "ప్రపంచ": 3816,
      "ndaman": 3817,
      "رڪزي": 3818,
      "clu": 3819,
      "▁ٻولي\")": 3820,
      "द्यान": 3821,
      "▁సంస్కృతి": 3822,
      "దీవ": 3823,
      "र्थिक": 3824,
      "▁समय": 3825,
      "rganisation": 3826,
      "articleshow": 3827,
      "▁واڌ": 3828,
      "यालय": 3829,
      "▁[↑](https://hi.wikipedia.org/wiki/भारत#cite_ref-1": 3830,
      "▁2006](https://en.wikipedia.org/wiki/India#CITEREF": 3831,
      "resident": 3832,
      "gramme": 3833,
      "-of": 3834,
      "09": 3835,
      "7-0)": 3836,
      "_0": 3837,
      "▁ro": 3838,
      "ale": 3839,
      "▁(2018": 3840,
      "▁Di": 3841,
      "▁GDP": 3842,
      "Wikipedia": 3843,
      "/auth": 3844,
      "32": 3845,
      "300": 3846,
      "6-0)": 3847,
      "99": 3848,
      "▁'": 3849,
      "\")[[": 3850,
      "▁February": 3851,
      "▁had": 3852,
      "▁Union": 3853,
      "inistry_of_": 3854,
      "censusindia.gov.in/2011census": 3855,
      "ligious": 3856,
      "8%": 3857,
      "_t": 3858,
      "ban": 3859,
      "cms": 3860,
      "ges": 3861,
      "mi": 3862,
      "ymb": 3863,
      "▁j": 3864,
      "▁res": 3865,
      "▁time": 3866,
      "eds.": 3867,
      "umar": 3868,
      "▁Budd": 3869,
      "▁BCE": 3870,
      "▁2008": 3871,
      "▁one": 3872,
      "▁than": 3873,
      "▁[2](https://en.wikipedia.org/wiki/India#cite_ref-": 3874,
      "▁[1](https://en.wikipedia.org/wiki/India#cite_ref-": 3875,
      "▁2010](https://en.wikipedia.org/wiki/India#CITEREF": 3876,
      "AsherTalbot2008": 3877,
      ".htm": 3878,
      "LA": 3879,
      "Uttar": 3880,
      "Wolpert": 3881,
      "_g": 3882,
      "_و": 3883,
      "back": 3884,
      "بل": 3885,
      "رڻ": 3886,
      "डी": 3887,
      "डु": 3888,
      "णि": 3889,
      "त्य": 3890,
      "धु": 3891,
      "लोक": 3892,
      "▁ث": 3893,
      "▁छ": 3894,
      "▁[India": 3895,
      "▁\"न": 3896,
      "▁\"सं": 3897,
      "\")\n\n[![](https://upload.wikimedia.org/wikipedia/commons/thumb/": 3898,
      "انور": 3899,
      "▁मा": 3900,
      "▁اهم": 3901,
      "▁آئين": 3902,
      "rovis": 3903,
      "नाव": 3904,
      "وريا": 3905,
      "▁द्वार": 3906,
      "▁*A": 3907,
      "118": 3908,
      "امونڊ": 3909,
      "माज": 3910,
      "▁آهي.[[": 3911,
      "▁है।\n\n": 3912,
      "ولهه": 3913,
      "ी](https://hi.wikipedia.org/wiki/अ": 3914,
      "सेना": 3915,
      "▁चु": 3916,
      "▁हुई": 3917,
      "▁هندستان": 3918,
      "▁حصو": 3919,
      "%20=%20%20": 3920,
      "शासित": 3921,
      "त्पाद": 3922,
      "%5": 3923,
      "_V": 3924,
      "get": 3925,
      "ian": 3926,
      "ls": 3927,
      "nam": 3928,
      "ose": 3929,
      "▁[O": 3930,
      "arn": 3931,
      "▁(2006": 3932,
      "riod": 3933,
      "etail": 3934,
      "▁tradition": 3935,
      "▁14": 3936,
      "▁Pe": 3937,
      "1162": 3938,
      "▁2025": 3939,
      "▁became": 3940,
      "National_Informatics_Centre2005": 3941,
      "119": 3942,
      "_వ": 3943,
      "a.": 3944,
      "ahar": 3945,
      "m.nic.in/": 3946,
      "ncl": 3947,
      "pt": 3948,
      "ం\"),": 3949,
      "ంత్రి": 3950,
      "ఆఫ్": 3951,
      "కత": 3952,
      "కై": 3953,
      "క్య": 3954,
      "దాయ": 3955,
      "రే": 3956,
      "లంక": 3957,
      "వీ": 3958,
      "శ్రీ": 3959,
      "షి": 3960,
      "సు": 3961,
      "▁ఏ": 3962,
      "▁up": 3963,
      "▁[సి": 3964,
      "▁\"[": 3965,
      "religion": 3966,
      "ough": 3967,
      "](https://te.wikipedia.org/wiki/చ": 3968,
      "స్సా": 3969,
      "▁పరి": 3970,
      "▁పార్టీ": 3971,
      "న్‌": 3972,
      "change": 3973,
      "ung": 3974,
      "▁కు": 3975,
      "▁వచ్చ": 3976,
      "fore": 3977,
      "abad": 3978,
      "ముద్ర": 3979,
      "olitics": 3980,
      "-107-1": 3981,
      "▁It": 3982,
      "గాంధీ": 3983,
      "నేపాల": 3984,
      "▁పేరు": 3985,
      "హిందీ": 3986,
      "▁చెయ్య": 3987,
      "▁కూడా": 3988,
      "ughal": 3989,
      "ంగీతం": 3990,
      "ముంబై": 3991,
      "ehru": 3992,
      "ournal": 3993,
      "శ్చిమ": 3994,
      "▁two": 3995,
      "▁మార్గ": 3996,
      "nclm.nic.in/": 3997,
      "▁చెయ్యబడ": 3998,
      "84": 3999,
      "9-0)": 4000,
      "IB": 4001,
      "_14": 4002,
      "ae": 4003,
      "▁|\n\n": 4004,
      "24)": 4005,
      "ources": 4006,
      "▁Plate": 4007,
      "KulkeRothermund2004": 4008,
      ",[[": 4009,
      "91": 4010,
      "_۽": 4011,
      "_ब": 4012,
      "ر\")": 4013,
      "زادي": 4014,
      "شان": 4015,
      "و](https://sd.wikipedia.org/wiki/": 4016,
      "ईसा": 4017,
      "कल": 4018,
      "खाना": 4019,
      "तु": 4020,
      "नगर": 4021,
      "ल्": 4022,
      "ोम": 4023,
      "▁`": 4024,
      "▁ऊ": 4025,
      "▁\"ج": 4026,
      "▁\"ن": 4027,
      "esearch": 4028,
      "](https://hi.wikipedia.org/wiki/इ": 4029,
      "انا": 4030,
      "▁सु": 4031,
      "\\_contain": 4032,
      "▁سيڪ": 4033,
      "▁سرڪاري": 4034,
      "र्दू": 4035,
      "▁وارو": 4036,
      "▁ڪانگريس": 4037,
      "▁अग": 4038,
      "ورڊ": 4039,
      "▁दिया": 4040,
      "▁बढ़": 4041,
      "▁انت": 4042,
      "imf": 4043,
      "_Delhi": 4044,
      "राष्ट्रपति": 4045,
      "▁\"Doi": 4046,
      "्रां": 4047,
      "▁علائقن": 4048,
      "يمبر": 4049,
      "▁हुआ": 4050,
      "हासागर": 4051,
      "फ़रवरी": 4052,
      "oi_(identifier)": 4053,
      "▁هيٺ": 4054,
      "ष्ण": 4055,
      "ंबई": 4056,
      "يورسٽي": 4057,
      "▁लिए": 4058,
      "garh": 4059,
      "▁جهڙ": 4060,
      "▁विकास": 4061,
      "عرب_ليگ": 4062,
      "▁(identifier)\"):[10.": 4063,
      "her": 4064,
      "sar": 4065,
      "alore": 4066,
      "](https://en.wikipedia.org/wiki/The": 4067,
      "omin": 4068,
      "ouse": 4069,
      "\n\nM": 4070,
      "atak": 4071,
      "▁summit\")": 4072,
      "▁caste": 4073,
      "loy": 4074,
      "angalore": 4075,
      "ulti": 4076,
      "rah": 4077,
      "23)": 4078,
      "illion": 4079,
      "▁war": 4080,
      "_in_S": 4081,
      "_Asian": 4082,
      "1997": 4083,
      "▁general": 4084,
      "▁[*India": 4085,
      "▁\"Economy": 4086,
      "](https://en.wikipedia.org/wiki/Economy": 4087,
      "978-0-521-5": 4088,
      "▁[Archived](https://web.archive.org/web/201": 4089,
      ".svg/": 4090,
      "ivil": 4091,
      ".svg.png)": 4092,
      "ujarat": 4093,
      "-B": 4094,
      "-28": 4095,
      ".fr": 4096,
      "6–": 4097,
      "C).": 4098,
      "_en": 4099,
      "oni": 4100,
      "ominal": 4101,
      "2012": 4102,
      "url": 4103,
      "vers": 4104,
      "▁Min": 4105,
      "ments": 4106,
      "india-g": 4107,
      ".jpg)\n\n[": 4108,
      "166": 4109,
      "▁Language": 4110,
      "hindi": 4111,
      "ublishing": 4112,
      "127": 4113,
      "1-9": 4114,
      "_n": 4115,
      "crip": 4116,
      "oa": 4117,
      "vid": 4118,
      "vol": 4119,
      "yle": 4120,
      "high": 4121,
      "▁Economic": 4122,
      "hina": 4123,
      "34)": 4124,
      "arket": 4125,
      "ject": 4126,
      "Articles\\_contain": 4127,
      "1]](https://en.wikipedia.org/wiki/India#cite_note-FOOTNOTE": 4128,
      "_ا": 4129,
      "if": 4130,
      "ton": 4131,
      "بين": 4132,
      "ذه": 4133,
      "قاف": 4134,
      "مهو": 4135,
      "و?action=edit&redlink=1": 4136,
      "ي،": 4137,
      "क्स": 4138,
      "न](https://hi.wikipedia.org/wiki/": 4139,
      "योग": 4140,
      "वै": 4141,
      "स्ट": 4142,
      "ूर्": 4143,
      "ृति": 4144,
      "గర": 4145,
      "టక": 4146,
      "టా": 4147,
      "దార": 4148,
      "నీ": 4149,
      "రో": 4150,
      "సభ": 4151,
      "ెద్ద": 4152,
      "▁[आ": 4153,
      "▁[ज": 4154,
      "▁\"आ": 4155,
      "▁\"సి": 4156,
      "▁\"हिन्द": 4157,
      "▁\"سانچو:": 4158,
      "](https://en.wikipedia.org/wiki/O": 4159,
      "ारी": 4160,
      "ार्च": 4161,
      "ised": 4162,
      "](https://sd.wikipedia.org/wiki/ن": 4163,
      "](https://sd.wikipedia.org/wiki/سانچو:": 4164,
      "astern": 4165,
      "](https://te.wikipedia.org/wiki/భారత_": 4166,
      "2016": 4167,
      "ooperation": 4168,
      "atar": 4169,
      "▁سمنڊ": 4170,
      "▁وڃ": 4171,
      "▁పు": 4172,
      "▁اتر": 4173,
      "ura": 4174,
      "▁ڪيت": 4175,
      "▁ڪرڻ": 4176,
      "िक्": 4177,
      "▁تح": 4178,
      "▁تر": 4179,
      "రాజ్య": 4180,
      "▁जून": 4181,
      "▁दे": 4182,
      "▁दिस": 4183,
      "▁BRICS": 4184,
      "▁కేంద్రపాలిత": 4185,
      "_(India)": 4186,
      "राजस्थान": 4187,
      "▁మా": 4188,
      "▁هون": 4189,
      "▁చే": 4190,
      "▁group": 4191,
      ".jpg)](https://sd.wikipedia.org/wiki/فائل:": 4192,
      "ము\")": 4193,
      "త్స": 4194,
      "▁రాజ్య": 4195,
      "नेपाल": 4196,
      "▁شامل": 4197,
      "त्तरा": 4198,
      "వాతంత్ర": 4199,
      "जाति": 4200,
      "▁Press](https://en.wikipedia.org/wiki/": 4201,
      "▁దేశాల": 4202,
      "▁\"ڀارتي": 4203,
      "▁क्षेत्र\")": 4204,
      "धानमंत्र": 4205,
      "](https://en.wikipedia.org/wiki/Doi_(identifier)": 4206,
      "లాదేశ్": 4207,
      "స్తు": 4208,
      "▁సామ్రాజ్యం](https://te.wikipedia.org/wiki/": 4209,
      "्रीका": 4210,
      "سنسڪرت": 4211,
      "ంగ్లాదేశ్": 4212,
      "▁భాషలు": 4213,
      "▁پارٽي": 4214,
      "गणना": 4215,
      "▁खाना\")": 4216,
      "▁निर्": 4217,
      "actbook": 4218,
      "_ప్రా": 4219,
      "▁يونيورسٽي": 4220,
      "NGDP": 4221,
      "برطانوي": 4222,
      "్రిటి": 4223,
      "uistic": 4224,
      "माणु": 4225,
      "▁అధికార": 4226,
      "▁اوڀر": 4227,
      "ూర్పు": 4228,
      "فوظ": 4229,
      "म्मू": 4230,
      "▁[doi](https://en.wikipedia.org/wiki/Doi_(identifier)": 4231,
      "ymbol": 4232,
      "కైవు": 4233,
      "مهوري": 4234,
      "▁दिसम्बर": 4235,
      "2,": 4236,
      "225": 4237,
      "En": 4238,
      "ele": 4239,
      "economic": 4240,
      "ration": 4241,
      "teen": 4242,
      "reat": 4243,
      "▁(*": 4244,
      "▁(1,": 4245,
      "▁2015": 4246,
      "def": 4247,
      "▁2005": 4248,
      "22)": 4249,
      "▁[*The": 4250,
      "▁under": 4251,
      "▁States": 4252,
      "ynas": 4253,
      "text": 4254,
      "&s": 4255,
      "-78": 4256,
      "110": 4257,
      "55": 4258,
      "5–": 4259,
      "detail": 4260,
      "ph": 4261,
      "ving": 4262,
      "wal": 4263,
      "way": 4264,
      "arliament": 4265,
      "omas": 4266,
      "ammu": 4267,
      "-15": 4268,
      "etary": 4269,
      "▁Sanskrit": 4270,
      "urn": 4271,
      "_of_S": 4272,
      "_Sh": 4273,
      "-317": 4274,
      "imalay": 4275,
      "▁War": 4276,
      "osed": 4277,
      "▁period": 4278,
      ".aspx": 4279,
      "130": 4280,
      "Craven": 4281,
      "gan": 4282,
      "slam": 4283,
      "war": 4284,
      "yayan": 4285,
      "▁am": 4286,
      "▁ref": 4287,
      "▁ra": 4288,
      "pee": 4289,
      "tecture": 4290,
      "\");": 4291,
      "reme": 4292,
      "](https://en.wikipedia.org/wiki/I": 4293,
      "cise": 4294,
      "achin": 4295,
      "-14": 4296,
      "▁sup": 4297,
      "▁Ac": 4298,
      "▁modern": 4299,
      "chool": 4300,
      "rown": 4301,
      "ilg": 4302,
      "28)": 4303,
      "▁General": 4304,
      "arge": 4305,
      "key": 4306,
      "978-0-19-9": 4307,
      "induism": 4308,
      "▁3,": 4309,
      "904-7": 4310,
      "ultan": 4311,
      "978-0-521-80": 4312,
      "\"](https://web.archive.org/web/20160": 4313,
      "endra": 4314,
      "ainting": 4315,
      "atsyayan": 4316,
      "JPG": 4317,
      "Harle1994": 4318,
      "ricket": 4319,
      "1162-2": 4320,
      "-107-11162-2": 4321,
      "Craven1997": 4322,
      "978-0-521-80904-7": 4323,
      "%D": 4324,
      "545": 4325,
      "_प": 4326,
      "dr": 4327,
      "ffice": 4328,
      "imp": 4329,
      "osi": 4330,
      "ئون": 4331,
      "به": 4332,
      "تح": 4333,
      "دان": 4334,
      "علائق": 4335,
      "لن": 4336,
      "مال": 4337,
      "مبر": 4338,
      "وت": 4339,
      "ڏي": 4340,
      "टी": 4341,
      "द्वीप": 4342,
      "वी": 4343,
      "हीं": 4344,
      "िज": 4345,
      "िन्": 4346,
      "ैल": 4347,
      "ैंड": 4348,
      "▁غ": 4349,
      "▁फ़रवरी": 4350,
      "dian": 4351,
      "▁\"آ": 4352,
      "▁\"ا": 4353,
      "](https://hi.wikipedia.org/wiki/सं": 4354,
      "ارن": 4355,
      "▁(eds.": 4356,
      "](https://sd.wikipedia.org/wiki/ج": 4357,
      "190": 4358,
      "\\_م": 4359,
      "▁मार्च": 4360,
      "्यता": 4361,
      "▁पह": 4362,
      "▁पार्ट": 4363,
      "▁Assembly": 4364,
      "▁سما": 4365,
      "र्स": 4366,
      "र्जा": 4367,
      "](https://hi.wikipedia.org/wiki/भारतीय": 4368,
      "▁وب": 4369,
      "▁اين": 4370,
      "▁است": 4371,
      "▁آف": 4372,
      "00)": 4373,
      "▁پريس": 4374,
      "روع": 4375,
      "त्रि": 4376,
      "▁बना": 4377,
      "ستي": 4378,
      "▁वा": 4379,
      ".jpg)](https://hi.wikipedia.org/wiki/चित्र:": 4380,
      "ake": 4381,
      "يٽ?action=edit&redlink=1": 4382,
      "▁संविधान": 4383,
      "▁شروع": 4384,
      "र्वत": 4385,
      "ंडिया": 4386,
      "पात": 4387,
      "ंग्रेस": 4388,
      "ock": 4389,
      "▁وڏو": 4390,
      "स्कृति": 4391,
      "▁ٻيٽ\")": 4392,
      "▁हिन्दी": 4393,
      "▁शासन": 4394,
      "▁थी": 4395,
      "ustralia": 4396,
      "▁صنعت": 4397,
      "वेबैक": 4398,
      "▁द्वारा": 4399,
      "%5B": 4400,
      "▁سيڪڙو": 4401,
      "▁پريس.": 4402,
      "124": 4403,
      ":\\_": 4404,
      "II": 4405,
      "b/": 4406,
      "lu": 4407,
      "languages": 4408,
      "minist": 4409,
      "pa": 4410,
      "tb": 4411,
      "y,": 4412,
      "▁[United": 4413,
      "than": 4414,
      "errit": 4415,
      "▁south": 4416,
      "▁Al": 4417,
      "▁Pakistan": 4418,
      "cond": 4419,
      "1990": 4420,
      "▁northern": 4421,
      "duction": 4422,
      "rofile": 4423,
      "2]](https://en.wikipedia.org/wiki/India#cite_note-FOOTNOTE": 4424,
      "3TR": 4425,
      "can": 4426,
      "election": 4427,
      "gni": 4428,
      "ii": 4429,
      "lance": 4430,
      "pic": 4431,
      "vatsyayan": 4432,
      "ంజా": 4433,
      "గి": 4434,
      "టీ": 4435,
      "టాన్": 4436,
      "మంత్రి": 4437,
      "లను": 4438,
      "వె": 4439,
      "వరణ": 4440,
      "హదార": 4441,
      "ూచ": 4442,
      "▁హ": 4443,
      "▁భారతదేశ": 4444,
      "pen": 4445,
      "ins": 4446,
      "20)": 4447,
      "్రమ": 4448,
      "▁such": 4449,
      "ussia": 4450,
      "▁classical": 4451,
      "978-81": 4452,
      "▁Raj": 4453,
      "భారతదేశ_": 4454,
      "▁Bank": 4455,
      "▁కొ": 4456,
      ".com/news/": 4457,
      "▁వ్యా": 4458,
      "▁later": 4459,
      "▁మత": 4460,
      "▁మతము": 4461,
      "Union": 4462,
      "తావరణ": 4463,
      "నాడు": 4464,
      "aksh": 4465,
      "▁K.": 4466,
      "-108": 4467,
      "_BRICS": 4468,
      "▁ఇతర": 4469,
      "ాయి": 4470,
      "ణాసియా": 4471,
      "టెడ్": 4472,
      "▁ఆర్కైవు": 4473,
      "▁million": 4474,
      "-lord": 4475,
      "▁రైలు": 4476,
      "భూటాన్": 4477,
      "_సామ్రాజ్యం": 4478,
      "ommonwealth": 4479,
      "Wolpert2003": 4480,
      "\n\nMain": 4481,
      "india-glance": 4482,
      "వాతంత్ర్య": 4483,
      "3TRt": 4484,
      "vatsyayan-lord": 4485,
      "-25": 4486,
      "63": 4487,
      "ealth": 4488,
      "nominal": 4489,
      "▁/": 4490,
      "▁right": 4491,
      "▁\"India": 4492,
      "cean": 4493,
      "resent": 4494,
      "▁India\").": 4495,
      "akh": 4496,
      "artment": 4497,
      "ankar": 4498,
      "ynasty": 4499,
      "2–": 4500,
      "DD": 4501,
      "_न": 4502,
      "bc": 4503,
      "c/c": 4504,
      "بئي": 4505,
      "خو": 4506,
      "دال": 4507,
      "صل": 4508,
      "فظ": 4509,
      "مبئي": 4510,
      "پار": 4511,
      "گراف": 4512,
      "ंट": 4513,
      "खंड": 4514,
      "खण्ड": 4515,
      "गोल": 4516,
      "धि": 4517,
      "रू": 4518,
      "रेल": 4519,
      "व्यवस्था": 4520,
      "शीन": 4521,
      "ुरु": 4522,
      "ुंबई": 4523,
      "ौर": 4524,
      "ौद्ध": 4525,
      "ौद्योगिक": 4526,
      "▁या": 4527,
      "▁[19": 4528,
      "▁\"خاص:BookSources/": 4529,
      "्रम": 4530,
      "issi": 4531,
      "انڊيا": 4532,
      "انڌي": 4533,
      "](https://sd.wikipedia.org/wiki/آ": 4534,
      "](https://sd.wikipedia.org/wiki/ڪ": 4535,
      "](https://sd.wikipedia.org/wiki/ISBN_(identifier)": 4536,
      "](https://sd.wikipedia.org/wiki/خاص:BookSources/": 4537,
      "ould": 4538,
      "▁संग": 4539,
      "▁मैदान": 4540,
      "▁industry": 4541,
      "▁sh": 4542,
      "uslim": 4543,
      "▁Ar": 4544,
      "▁co": 4545,
      "▁سا": 4546,
      "ينٽ": 4547,
      "يات": 4548,
      "يا\")": 4549,
      "▁ويا": 4550,
      "ictionary": 4551,
      "▁آم": 4552,
      "▁آزادي": 4553,
      "ريڪ": 4554,
      "▁अरब": 4555,
      "253": 4556,
      "नाडु": 4557,
      "▁जल": 4558,
      "▁दर": 4559,
      "▁प्रति": 4560,
      "ताब्": 4561,
      "स्त्र": 4562,
      "▁ٻڌ": 4563,
      "ي_س": 4564,
      "पुरी": 4565,
      "▁حڪم": 4566,
      "▁[ISBN](https://sd.wikipedia.org/wiki/ISBN_(identifier)": 4567,
      ".gov.in": 4568,
      "](https://hi.wikipedia.org/wiki/भारत#cite_ref-FOOTNOTE": 4569,
      "▁इतिहास": 4570,
      "سٽري": 4571,
      "▁हैं,": 4572,
      "▁چونڊ": 4573,
      "▁فوج": 4574,
      "पर्यटन": 4575,
      "किम": 4576,
      "ikh": 4577,
      "achal": 4578,
      "▁لاڳ": 4579,
      "दीव": 4580,
      "▁इसके": 4581,
      "do-A": 4582,
      "पालिका": 4583,
      "▁घाट": 4584,
      "▁ايڊ": 4585,
      "▁گهڻ": 4586,
      "▁सिनेमा": 4587,
      "▁پيداوار": 4588,
      "▁Environment": 4589,
      "'''": 4590,
      "▁ڪمپني": 4591,
      "िक्षा": 4592,
      "_Development": 4593,
      "▁ثقاف": 4594,
      "िक्किम": 4595,
      "▁حڪمران": 4596,
      "▁[ISBN](https://sd.wikipedia.org/wiki/ISBN_(identifier)?action=edit&redlink=1": 4597,
      "52": 4598,
      "LO": 4599,
      "Qu": 4600,
      "_for": 4601,
      "lor": 4602,
      "ras": 4603,
      "uil": 4604,
      "ures": 4605,
      "ze": 4606,
      "▁[m": 4607,
      "arly": 4608,
      "arna": 4609,
      "ern": 4610,
      "▁12": 4611,
      "▁Per": 4612,
      "istan": 4613,
      "▁me": 4614,
      "▁mathe": 4615,
      "003": 4616,
      "chedu": 4617,
      "▁Mon": 4618,
      "olle": 4619,
      "Spear": 4620,
      "_Pl": 4621,
      "owland": 4622,
      "▁original](https://": 4623,
      "▁\"Template": 4624,
      "▁2011.\n-": 4625,
      "▁union": 4626,
      "▁1998": 4627,
      "reek": 4628,
      "MetcalfMetcalf2006),": 4629,
      "▁2019.": 4630,
      "rowth": 4631,
      "limate": 4632,
      "▁2018](https://en.wikipedia.org/wiki/India#CITEREF": 4633,
      "erritory": 4634,
      "/articleshow": 4635,
      "94": 4636,
      "_on": 4637,
      "len": 4638,
      "▁2.": 4639,
      "▁\"National": 4640,
      "lia": 4641,
      "ISO": 4642,
      "▁British": 4643,
      "1996": 4644,
      "\"](https://books.google.com/books?id=": 4645,
      "▁Official": 4646,
      "ligence": 4647,
      "ffer": 4648,
      "▁Islands": 4649,
      "rishn": 4650,
      "telligence": 4651,
      "7-0": 4652,
      "98": 4653,
      "Ludden": 4654,
      "af": 4655,
      "aus": 4656,
      "yan": 4657,
      "▁\"United": 4658,
      "eral_": 4659,
      "ise": 4660,
      "▁comm": 4661,
      "CS1\\_": 4662,
      ".html).": 4663,
      "-language\\_text": 4664,
      "=`": 4665,
      "Dikshit": 4666,
      "Report": 4667,
      "Schwartzberg": 4668,
      "cul": 4669,
      "dones": 4670,
      "ua": 4671,
      "west": 4672,
      "جاب": 4673,
      "رائي": 4674,
      "رياست": 4675,
      "شن": 4676,
      "ظامي": 4677,
      "پڪ": 4678,
      "یاد": 4679,
      "रण": 4680,
      "लिस": 4681,
      "वार": 4682,
      "वीं": 4683,
      "शक": 4684,
      "स](https://hi.wikipedia.org/wiki/": 4685,
      "सभा": 4686,
      "ां": 4687,
      "ाप": 4688,
      "ांध": 4689,
      "ोष": 4690,
      "०१": 4691,
      "ం.": 4692,
      "ంశ": 4693,
      "ఆర్": 4694,
      "ఉత్తర": 4695,
      "ఒడి": 4696,
      "కీయ": 4697,
      "గలు": 4698,
      "చు": 4699,
      "జరా": 4700,
      "తూర్పు": 4701,
      "ది.": 4702,
      "భు": 4703,
      "మన్": 4704,
      "యి": 4705,
      "లస": 4706,
      "ీన": 4707,
      "ేక": 4708,
      "–4": 4709,
      "▁ध": 4710,
      "▁డ": 4711,
      "▁జాబితా": 4712,
      "](https://web.archive.org/web/201": 4713,
      "▁[భారతదేశ": 4714,
      "▁\"V": 4715,
      "tis": 4716,
      "read": 4717,
      "](https://en.wikipedia.org/wiki/V": 4718,
      "▁(2010": 4719,
      "](https://sd.wikipedia.org/wiki/ا": 4720,
      "▁India*": 4721,
      "ety": 4722,
      "ata_": 4723,
      "▁Cons": 4724,
      "राठ": 4725,
      "ون\")": 4726,
      "ingdom": 4727,
      "local": 4728,
      "▁ويندو": 4729,
      "्ता:": 4730,
      "▁పట్ట": 4731,
      "▁اهو": 4732,
      "ائيٽ": 4733,
      "ర్\")": 4734,
      "▁many": 4735,
      "rative": 4736,
      "state": 4737,
      "▁**జాతీయ": 4738,
      "▁दृ": 4739,
      "▁दो": 4740,
      "▁economic": 4741,
      "నిక": 4742,
      "▁प्रमुख": 4743,
      "▁long": 4744,
      "▁large": 4745,
      "ంగ్రె": 4746,
      "▁సభ": 4747,
      "▁نه": 4748,
      "▁نالو": 4749,
      "▁ٿا": 4750,
      "తాబ్": 4751,
      "ast_Asia": 4752,
      "utra": 4753,
      "▁قب": 4754,
      "▁قانون": 4755,
      "▁دريا": 4756,
      "▁ప్రపంచ": 4757,
      "▁ప్రభు": 4758,
      "ولت": 4759,
      "िये": 4760,
      "▁ఆసియా": 4761,
      "▁شهر": 4762,
      "▁रह": 4763,
      "▁original](https://www.": 4764,
      "▁लग": 4765,
      "▁*[The": 4766,
      "మ్రాజ్య": 4767,
      "orities": 4768,
      "باد": 4769,
      "ृत्य": 4770,
      "▁آهن.[[": 4771,
      "గుజరా": 4772,
      "▁علائقا": 4773,
      "▁معاش": 4774,
      "ूनिव": 4775,
      "▁సామ్రాజ్యం\")": 4776,
      "▁سلطنت\")": 4777,
      "▁ڪيل.": 4778,
      "%20%20%20%20": 4779,
      "▁people": 4780,
      "త్యేక": 4781,
      "రాష్ట్రపతి": 4782,
      "ूरो": 4783,
      "ప్ప": 4784,
      "▁2021.": 4785,
      "▁ڳولي": 4786,
      "▁కాశ్మీ": 4787,
      "▁రాజవంశం": 4788,
      "](https://hi.wikipedia.org/wiki/भारत_की_": 4789,
      "](https://hi.wikipedia.org/wiki/भारत_का_": 4790,
      "▁చెంద": 4791,
      "▁ఆర్ధిక": 4792,
      "▁ويب": 4793,
      "▁[ڀارتي": 4794,
      "دد:": 4795,
      "_संघ": 4796,
      "▁స్థాన": 4797,
      "▁پنهن": 4798,
      "industan": 4799,
      "▁موجود": 4800,
      "తమిళనాడు": 4801,
      "▁युद्ध": 4802,
      "तेलु": 4803,
      "▁rule": 4804,
      "ప్రధానమంత్రి": 4805,
      "سنڌو": 4806,
      "▁محفوظ": 4807,
      "▁न्यायालय": 4808,
      "గణతంత్ర": 4809,
      "▁క్రీడ": 4810,
      "धिकारिक": 4811,
      "يادکرد": 4812,
      "▁<https://": 4813,
      "▁[पुरालेखित": 4814,
      "امونڊي": 4815,
      "arnatak": 4816,
      "ఆఫ్ఘ": 4817,
      "శ్రీలంక": 4818,
      "షియా": 4819,
      "న్‌ఫ": 4820,
      "నేపాల్": 4821,
      "▁చెయ్యబడింది.": 4822,
      "▁अगस्त": 4823,
      "](https://en.wikipedia.org/wiki/Economy_of_": 4824,
      "धानमंत्री": 4825,
      "▁among": 4826,
      "▁(eds.).": 4827,
      "DikshitSchwartzberg": 4828,
      "donesia": 4829,
      "یادکرد": 4830,
      "▁(2010).": 4831,
      "తాబ్ద": 4832,
      "▁معاشي": 4833,
      "DikshitSchwartzberg2023": 4834,
      "/article": 4835,
      "74": 4836,
      "Con": 4837,
      "Un": 4838,
      "iter": 4839,
      "t-": 4840,
      "yana": 4841,
      "er,": 4842,
      "-16": 4843,
      "▁Science": 4844,
      "109": 4845,
      "▁November": 4846,
      "-90": 4847,
      "occ": 4848,
      "ography": 4849,
      "▁territory": 4850,
      "_at_the": 4851,
      "apita": 4852,
      "125": 4853,
      "3,": 4854,
      "RL": 4855,
      "aury": 4856,
      "ced": 4857,
      "ip": 4858,
      "zation": 4859,
      "▁50": 4860,
      "▁out": 4861,
      "▁article": 4862,
      "them": 4863,
      "▁mi": 4864,
      "raj": 4865,
      "▁2011.": 4866,
      "-3)": 4867,
      "▁depend": 4868,
      "llchin": 4869,
      "erala": 4870,
      "▁area": 4871,
      "ohn": 4872,
      "ervation": 4873,
      "nominal)": 4874,
      "123": 4875,
      "3]](https://en.wikipedia.org/wiki/India#cite_note-FOOTNOTE": 4876,
      "54": 4877,
      "_J": 4878,
      "cted": 4879,
      "gi": 4880,
      "ite": 4881,
      "iri": 4882,
      "nf": 4883,
      "rdu": 4884,
      "anoram": 4885,
      "alog": 4886,
      "ality": 4887,
      "▁inclu": 4888,
      "▁CE": 4889,
      "▁some": 4890,
      "▁since": 4891,
      "ide": 4892,
      "▁Affairs": 4893,
      "▁Afric": 4894,
      "rol": 4895,
      "ource": 4896,
      "_Summit": 4897,
      "▁land": 4898,
      "▁Fund": 4899,
      "epartment": 4900,
      "ineering": 4901,
      "vision": 4902,
      "ront": 4903,
      "▁Act,": 4904,
      "_in_South_Asia": 4905,
      "ast_Asia_Summit": 4906,
      "-प": 4907,
      "/India": 4908,
      "C-0": 4909,
      "_अ": 4910,
      "_ए": 4911,
      "y=": 4912,
      "درا": 4913,
      "زن": 4914,
      "سپ": 4915,
      "شمي": 4916,
      "صغير": 4917,
      "عمال": 4918,
      "وري": 4919,
      "يس": 4920,
      "ٽر": 4921,
      "ंका": 4922,
      "कट": 4923,
      "गंगा": 4924,
      "देव": 4925,
      "भो": 4926,
      "मेर": 4927,
      "ल](https://hi.wikipedia.org/wiki/": 4928,
      "लंका": 4929,
      "हैद": 4930,
      "िला": 4931,
      "ीमा": 4932,
      "ूह": 4933,
      "्म": 4934,
      "▁ذ": 4935,
      "▁ट": 4936,
      "▁يا": 4937,
      "▁دي": 4938,
      ".org": 4939,
      "▁[4": 4940,
      "▁[ن": 4941,
      "▁[ओ": 4942,
      "▁\"ओ": 4943,
      "208": 4944,
      "](https://hi.wikipedia.org/wiki/आ": 4945,
      "ارڪ": 4946,
      "\\_(": 4947,
      "lib": 4948,
      "राबाद": 4949,
      "ون?action=edit&redlink=1": 4950,
      "يني": 4951,
      "ाने": 4952,
      "र्ना": 4953,
      "ياسي": 4954,
      "▁واپ": 4955,
      "▁وزيراعظم": 4956,
      "▁اصل": 4957,
      "ائم": 4958,
      "ائون": 4959,
      "](https://sd.wikipedia.org/wiki/ڀارتي_": 4960,
      "▁अप्र": 4961,
      "▁تن": 4962,
      "_का_": 4963,
      "▁नी": 4964,
      "▁نشان": 4965,
      "يوان": 4966,
      "▁هئ": 4967,
      "▁ٿيون": 4968,
      "▁لفظ": 4969,
      "▁[Asher": 4970,
      "▁Kashmir": 4971,
      "يڪن": 4972,
      "▁संबंध": 4973,
      "म्प": 4974,
      "हिमा": 4975,
      "emoc": 4976,
      "त्तीस": 4977,
      "र्वो": 4978,
      "▁भाषाओं": 4979,
      "▁करने": 4980,
      "िरपे": 4981,
      "اتر": 4982,
      "_pro": 4983,
      "वायु": 4984,
      "engali": 4985,
      "ीपी": 4986,
      "انگريزي": 4987,
      "meric": 4988,
      "▁मेला\")": 4989,
      "▁हुए": 4990,
      "اوڀر": 4991,
      "▁ٿو.": 4992,
      ".html)": 4993,
      "_ٻولي": 4994,
      "_ٻيٽ?action=edit&redlink=1": 4995,
      "भीम": 4996,
      "िल्ली": 4997,
      "▁कार्य": 4998,
      "▁موجب": 4999,
      "▁estim": 5000,
      "▁[हिन्दी](https://hi.wikipedia.org/wiki/": 5001,
      "ترڪه": 5002,
      "_۽_": 5003,
      "teenth": 5004,
      "بهوا": 5005,
      "▁استعمال": 5006,
      "▁ايڊيشن": 5007,
      "हैदराबाद": 5008,
      "र्नाटक": 5009,
      "िरपेक्ष": 5010,
      "\"[[": 5011,
      "1).": 5012,
      "press": 5013,
      "tition": 5014,
      "acy": 5015,
      "\\_articles": 5016,
      "ett": 5017,
      "rain": 5018,
      "upta": 5019,
      "▁2026": 5020,
      "ountry": 5021,
      "8/8": 5022,
      "▁(2006).": 5023,
      "-C": 5024,
      ".world": 5025,
      "/lin": 5026,
      "6]](https://en.wikipedia.org/wiki/India#cite_note-": 5027,
      "9,": 5028,
      "Asia": 5029,
      "_18": 5030,
      "_15": 5031,
      "_with": 5032,
      "_ప్రదేశ్": 5033,
      "ave": 5034,
      "che": 5035,
      "fgh": 5036,
      "lass": 5037,
      "s_of_India": 5038,
      "ం,": 5039,
      "ఉప": 5040,
      "కొ": 5041,
      "కేంద్రపాలిత": 5042,
      "జె": 5043,
      "ఢ్": 5044,
      "నాల": 5045,
      "లే": 5046,
      "ళు": 5047,
      "ౌద్ధ": 5048,
      "▁he": 5049,
      "▁భా": 5050,
      "▁high": 5051,
      "▁[V": 5052,
      "▁[వి": 5053,
      "▁\"Oxford": 5054,
      "inance": 5055,
      "tici": 5056,
      "203": 5057,
      "arri": 5058,
      "2015": 5059,
      "](https://en.wikipedia.org/wiki/Indian": 5060,
      "red/lin": 5061,
      "▁inf": 5062,
      "▁social": 5063,
      "ages/": 5064,
      "ాలీ": 5065,
      "urton": 5066,
      "ర్చ": 5067,
      "▁maj": 5068,
      "21)": 5069,
      "25)": 5070,
      "▁total": 5071,
      "▁...": 5072,
      "Special:EditPage/": 5073,
      "▁Nadu": 5074,
      "ainism": 5075,
      "–సా.శ.18": 5076,
      "▁అత్య": 5077,
      "logo": 5078,
      "▁ఆధ": 5079,
      "మాఖ్య": 5080,
      "వాణా": 5081,
      "ంటి": 5082,
      "overe": 5083,
      "డ్డ": 5084,
      "▁జనాభా": 5085,
      "వర్గం": 5086,
      "దక్షిణాసియా": 5087,
      "slands": 5088,
      "▁గల": 5089,
      "india.gov.in/india-glance": 5090,
      "▁భారతదేశంలో": 5091,
      "ంగ్లీ": 5092,
      "యునై": 5093,
      "▁2021.\n": 5094,
      "ility": 5095,
      "ష్ణ": 5096,
      "_చరిత్ర?action=edit&redlink=1": 5097,
      "▁రాష్ట్రాలు,": 5098,
      "dependence": 5099,
      "_మతము": 5100,
      "shared/lin": 5101,
      "▁మొద": 5102,
      "kimages/": 5103,
      "_New_Delhi": 5104,
      "union_territ": 5105,
      "nclm.nic.in/shared/lin": 5106,
      "Spear1990": 5107,
      "fghan": 5108,
      "Special:EditPage/Template": 5109,
      "యునైటెడ్": 5110,
      "nclm.nic.in/shared/linkimages/": 5111,
      "-r": 5112,
      "-an": 5113,
      "South": 5114,
      "bank": 5115,
      "bbc": 5116,
      "rd": 5117,
      "rag": 5118,
      "stitu": 5119,
      "ui": 5120,
      "▁—": 5121,
      "rial": 5122,
      "lect": 5123,
      "▁R.": 5124,
      ".[[4": 5125,
      "▁emp": 5126,
      "web.archive.org/web/200": 5127,
      "▁Increase": 5128,
      "aju": 5129,
      "▁disp": 5130,
      "▁used": 5131,
      "document": 5132,
      ".php?": 5133,
      "\"](http://www.": 5134,
      ",NGDP": 5135,
      "_2": 5136,
      "ax": 5137,
      "britannica": 5138,
      "ihar": 5139,
      "oard": 5140,
      "اهي": 5141,
      "بري": 5142,
      "تم": 5143,
      "جمو": 5144,
      "فورڊ": 5145,
      "لين": 5146,
      "ٽيون": 5147,
      "پيو": 5148,
      "چن": 5149,
      "ڪن": 5150,
      "گر": 5151,
      "ंह": 5152,
      "गल": 5153,
      "झार": 5154,
      "डिया": 5155,
      "तट": 5156,
      "निक": 5157,
      "पान": 5158,
      "मालय": 5159,
      "हन": 5160,
      "हरी": 5161,
      "ाय": 5162,
      "िस्तान": 5163,
      "िहार": 5164,
      "▁ڌ": 5165,
      "▁ऑ": 5166,
      "▁ري": 5167,
      "▁زم": 5168,
      "▁राष्ट्र": 5169,
      "▁लेख": 5170,
      "▁history": 5171,
      "▁ارب": 5172,
      "▁term": 5173,
      "▁[च": 5174,
      "▁[اصل": 5175,
      "▁[Oxford": 5176,
      "▁\"ت": 5177,
      "alam": 5178,
      "cia": 5179,
      "es,": 5180,
      "](https://hi.wikipedia.org/wiki/ओ": 5181,
      "▁कुल": 5182,
      "انت": 5183,
      "▁they": 5184,
      "▁India*](https://books.google.com/books?id=": 5185,
      "▁مو": 5186,
      "र्ष": 5187,
      "▁केन्द्र": 5188,
      "▁ही": 5189,
      "▁होत": 5190,
      "ild": 5191,
      "105": 5192,
      "ियां": 5193,
      "▁बन": 5194,
      "▁बा": 5195,
      "▁नद": 5196,
      "▁नहीं": 5197,
      "▁से](http://": 5198,
      "_Affairs": 5199,
      "▁वार": 5200,
      "पुरा": 5201,
      "indus": 5202,
      "स्ला": 5203,
      "▁قائم": 5204,
      "▁در": 5205,
      "▁उद्यान": 5206,
      "▁है।[[": 5207,
      "▁शताब्": 5208,
      "▁Wiki": 5209,
      "▁रहा": 5210,
      "ibet": 5211,
      "لطيون": 5212,
      "atis": 5213,
      "विशेष:EditPage/": 5214,
      "▁ڊال": 5215,
      "visions": 5216,
      "▁मेला](https://hi.wikipedia.org/wiki/": 5217,
      "श्चिमी": 5218,
      "गणराज्य": 5219,
      "▁دوران": 5220,
      "هندستان": 5221,
      "▁प्राप्त": 5222,
      "ڪسفورڊ": 5223,
      "▁स्रोत/978-1": 5224,
      "](https://hi.wikipedia.org/wiki/विशेष:पुस्तक_स्रोत/978-1": 5225,
      "الاجي": 5226,
      "▁भूम": 5227,
      "▁نسخو": 5228,
      "▁गणराज्य": 5229,
      "▁चुनाव": 5230,
      "▁وڃي": 5231,
      "रेलू": 5232,
      "ولتِ": 5233,
      "र्वोच्च": 5234,
      "britannica.com/": 5235,
      "विशेष:EditPage/साँचा:": 5236,
      "-world": 5237,
      "/P": 5238,
      "5).": 5239,
      "6]](https://en.wikipedia.org/wiki/India#cite_note-FOOTNOTE": 5240,
      ":India": 5241,
      "Census": 5242,
      "UCN": 5243,
      "cor": 5244,
      "each": 5245,
      "lm": 5246,
      "owe": 5247,
      "yy": 5248,
      "▁ci": 5249,
      "▁occ": 5250,
      "orest": 5251,
      "▁[s": 5252,
      "2019": 5253,
      "2024": 5254,
      "arendra": 5255,
      "](https://en.wiki": 5256,
      "▁there": 5257,
      "▁incre": 5258,
      "▁Arab": 5259,
      "▁SAARC": 5260,
      "▁both": 5261,
      "icob": 5262,
      "0000": 5263,
      "verse": 5264,
      "its": 5265,
      "rote": 5266,
      "ayback": 5267,
      "irst": 5268,
      "▁largest": 5269,
      "_Indian": 5270,
      "▁[\"The": 5271,
      "_Pradesh": 5272,
      "archive.org/detail": 5273,
      "▁new": 5274,
      "407": 5275,
      "rief": 5276,
      "CS1_": 5277,
      "978-0-19-5": 5278,
      "riculture": 5279,
      "ssoci": 5280,
      "▁rate": 5281,
      "▁\"History": 5282,
      "](https://en.wikipedia.org/wiki/History": 5283,
      "ociety": 5284,
      "▁play": 5285,
      "catalog": 5286,
      "▁world's": 5287,
      "▁2006](https://en.wikipedia.org/wiki/India#CITEREFMetcalfMetcalf2006),": 5288,
      "▁article:": 5289,
      "icobar": 5290,
      "archive.org/details/": 5291,
      "/ark": 5292,
      "1-1": 5293,
      "9-6": 5294,
      "AQ": 5295,
      "ao": 5296,
      ":/121": 5297,
      "rect": 5298,
      "as,": 5299,
      "ama": 5300,
      "-135": 5301,
      "comm": 5302,
      "▁D.": 5303,
      "-405": 5304,
      "harm": 5305,
      "AAJ": 5306,
      "ternal": 5307,
      "48/c": 5308,
      "lower": 5309,
      "racy": 5310,
      ".bnf": 5311,
      ".fr/ark": 5312,
      "ymbols": 5313,
      ":/12148/c": 5314,
      ".bnf.fr/ark": 5315,
      ":/12148/cb": 5316,
      ".bnf.fr/ark:/12148/cb": 5317,
      "53": 5318,
      "Col": 5319,
      "Ministry_of_": 5320,
      "S.": 5321,
      "orical": 5322,
      "ancy": 5323,
      "erated": 5324,
      "▁(19": 5325,
      "\\_of": 5326,
      "inger": 5327,
      "inguistic": 5328,
      "217": 5329,
      "onsoon": 5330,
      "1017": 5331,
      "▁Data": 5332,
      "243": 5333,
      "50)": 5334,
      "▁north": 5335,
      "utt": 5336,
      "oreign": 5337,
      "▁status": 5338,
      "ultural": 5339,
      "formation": 5340,
      "issing": 5341,
      ".aspx?": 5342,
      "-29": 5343,
      "-विज्ञान": 5344,
      ".uk": 5345,
      "/D": 5346,
      "/s": 5347,
      "/india": 5348,
      "4-108": 5349,
      ":0": 5350,
      "B0%": 5351,
      "PE": 5352,
      "Robb": 5353,
      "_-": 5354,
      "_आ": 5355,
      "_उ": 5356,
      "_व": 5357,
      "_న": 5358,
      "_देश": 5359,
      "cess": 5360,
      "ece": 5361,
      "hang": 5362,
      "iote": 5363,
      "lack": 5364,
      "ning": 5365,
      "s:": 5366,
      "sur": 5367,
      "آباد": 5368,
      "رز": 5369,
      "سو": 5370,
      "صو": 5371,
      "فا": 5372,
      "فن": 5373,
      "مور": 5374,
      "نڍ": 5375,
      "ٽرو": 5376,
      "پر": 5377,
      "پال": 5378,
      "ڃاڻ": 5379,
      "ंच": 5380,
      "ईरा": 5381,
      "छत्तीस": 5382,
      "त्व": 5383,
      "फल": 5384,
      "फ्रीका": 5385,
      "लग": 5386,
      "लयाल": 5387,
      "स\")": 5388,
      "सून": 5389,
      "िंध": 5390,
      "ीच": 5391,
      "।\n\n": 5392,
      "१९": 5393,
      "ఖండ": 5394,
      "టిక": 5395,
      "డే": 5396,
      "ద్య": 5397,
      "మార్": 5398,
      "మాలయ": 5399,
      "లలో": 5400,
      "లకు": 5401,
      "ళ్": 5402,
      "వ](https://te.wikipedia.org/wiki/": 5403,
      "ానికి": 5404,
      "ాళు": 5405,
      "ీర్": 5406,
      "⁠ت": 5407,
      "▁·": 5408,
      "▁భ": 5409,
      "▁యు": 5410,
      "▁[ت": 5411,
      "▁\"च": 5412,
      "▁\"ल": 5413,
      "▁\"వి": 5414,
      "ess/": 5415,
      "tions": 5416,
      "](https://hi.wikipedia.org/wiki/च": 5417,
      "▁कई": 5418,
      "▁कश्मीर": 5419,
      "▁(India": 5420,
      "▁सद": 5421,
      "▁सैन": 5422,
      "▁جانور": 5423,
      "lem": 5424,
      "▁मुख": 5425,
      "-00": 5426,
      "▁Company": 5427,
      "▁power": 5428,
      "▁पर्वत": 5429,
      "[[14": 5430,
      "▁ميٽ": 5431,
      "ాలో": 5432,
      "▁Summit\")": 5433,
      "▁سياسي": 5434,
      "los": 5435,
      "ياتي": 5436,
      "▁وئي": 5437,
      "స్వ": 5438,
      "స్లా": 5439,
      "▁trans": 5440,
      "▁పాల": 5441,
      "▁ال": 5442,
      "ائيل": 5443,
      "▁ڪڙي": 5444,
      "న్\")": 5445,
      "▁minister": 5446,
      "▁member": 5447,
      "ريم": 5448,
      "states": 5449,
      "road": 5450,
      "वित": 5451,
      "_का": 5452,
      "ديپ": 5453,
      "▁दि": 5454,
      "▁Bengal": 5455,
      "▁కార": 5456,
      "▁కలి": 5457,
      "▁Delhi": 5458,
      "erry": 5459,
      "ాలు\n\n": 5460,
      "ాలు?action=edit&redlink=1": 5461,
      "రిహ": 5462,
      "రికత": 5463,
      "క్నాల": 5464,
      "ంది": 5465,
      "▁बीच": 5466,
      "నిమా": 5467,
      "الف": 5468,
      "الديپ": 5469,
      "▁India\")\n\n": 5470,
      "igh": 5471,
      "▁से](http://www.": 5472,
      "Special:S": 5473,
      "▁సంగీతం": 5474,
      "ताज": 5475,
      "▁Gandhi": 5476,
      "क्षा": 5477,
      "elang": 5478,
      "न्दिर": 5479,
      "▁చి": 5480,
      "▁rep": 5481,
      "▁आधिकारिक": 5482,
      "\"](https://web.archive.org/web/20": 5483,
      "स्थ": 5484,
      "ులు\"),": 5485,
      "epal": 5486,
      "–సా.శ.13": 5487,
      "▁అయ": 5488,
      "▁دهلي": 5489,
      "▁गु": 5490,
      "▁ప్రధాన": 5491,
      "يٽمي": 5492,
      "▁उत्पाद": 5493,
      "ाद्वीप": 5494,
      "▁began": 5495,
      "_मंदिर": 5496,
      "▁संस्कृति": 5497,
      "लेट": 5498,
      "प्रा": 5499,
      "avy": 5500,
      "ప్రదాయ": 5501,
      "ప్రత్యేక": 5502,
      "ద్వీ": 5503,
      "ولڪ": 5504,
      "▁इन": 5505,
      "▁ఉప": 5506,
      "اريخ": 5507,
      "emale": 5508,
      "▁రె": 5509,
      "own": 5510,
      "िस्ट": 5511,
      "▁صديءَ": 5512,
      "న్నడ": 5513,
      "ంటు": 5514,
      "viol": 5515,
      "▁करोड़": 5516,
      "_GDP": 5517,
      "▁దేశంలో": 5518,
      "▁अनु": 5519,
      "ాయి.": 5520,
      "केर": 5521,
      "▁[अंग्रेज़": 5522,
      "▁آهن،": 5523,
      "aries": 5524,
      "uddhism": 5525,
      "ssam": 5526,
      "اڻي": 5527,
      "కాశ్మీ": 5528,
      "timesofindia": 5529,
      "ంధు": 5530,
      "▁जनगणना": 5531,
      "DwAAQBAJ": 5532,
      "▁राजनी": 5533,
      "](https://sd.wikipedia.org/wiki/ڀارت_جا_": 5534,
      "▁\"पंजाब": 5535,
      "र्थव्यवस्था": 5536,
      "ద్ధం": 5537,
      "ద్ధి": 5538,
      "ాల్దీవ": 5539,
      "చ్చే": 5540,
      "ducation": 5541,
      "Oxford_University_Press": 5542,
      "▁[पंजाब": 5543,
      "దక్షిణ_": 5544,
      "करण": 5545,
      "rgani": 5546,
      "▁కాంగ్రె": 5547,
      "Stein2010),": 5548,
      "usiness/": 5549,
      "▁برطان": 5550,
      "టెక్నాల": 5551,
      "074-108": 5552,
      "▁होता": 5553,
      "హిమాలయ": 5554,
      "awahar": 5555,
      "ब्ब": 5556,
      "پيڊيا": 5557,
      ":EditPage/మూస:": 5558,
      "▁जिसमें": 5559,
      "▁Empire\")": 5560,
      "▁कारण": 5561,
      "▁లే": 5562,
      "త్తరా": 5563,
      "నాగరికత": 5564,
      "ोर्ड": 5565,
      "_मेला?action=edit&redlink=1": 5566,
      "క్కువ": 5567,
      "بنگلا": 5568,
      "esert": 5569,
      "క్‌సభ": 5570,
      "▁శాస్త్ర": 5571,
      "गोआ": 5572,
      "countries_by_GDP": 5573,
      "श्रीलंका": 5574,
      "hasha": 5575,
      "-4020": 5576,
      "ెలుగు": 5577,
      "▁2010](https://en.wikipedia.org/wiki/India#CITEREFStein2010),": 5578,
      "▁వచ్చింది.": 5579,
      "▁`|": 5580,
      "▁Press](https://en.wikipedia.org/wiki/Oxford_University_Press": 5581,
      "_ప్రాంత": 5582,
      "-78074-108": 5583,
      "ultanate": 5584,
      "%D8%": 5585,
      "▁سماجي": 5586,
      "र्सिट": 5587,
      "ministrative": 5588,
      "do-Ary": 5589,
      "yanmar": 5590,
      "ूनिवर्सिट": 5591,
      "▁<https://books.google.com.pk/books?id=": 5592,
      "يڪنالاجي": 5593,
      "ర్చ:": 5594,
      "వర్గం:Harv": 5595,
      "ڃاڻپ": 5596,
      "ాళుక్య": 5597,
      "▁ڪڙي:": 5598,
      "Special:Search": 5599,
      "ప్రత్యేక:EditPage/మూస:": 5600,
      "▁[अंग्रेज़ी](https://hi.wikipedia.org/wiki/अ": 5601,
      "timesofindia.indiatimes.com/": 5602,
      "టెక్నాలజీ": 5603,
      "awaharl": 5604,
      "countries_by_GDP_(": 5605,
      "-78074-108-6": 5606,
      "313": 5607,
      "a)": 5608,
      "ple": 5609,
      "ency": 5610,
      "hief": 5611,
      "▁S.": 5612,
      "lopedia": 5613,
      "▁11": 5614,
      "▁Publishing": 5615,
      "ravi": 5616,
      "vert": 5617,
      ".\n13": 5618,
      "itz": 5619,
      "oloni": 5620,
      "▁David": 5621,
      "ounci": 5622,
      "ha2014": 5623,
      "▁Ex": 5624,
      "ubcontinent": 5625,
      "akhand": 5626,
      "overnment_of_India": 5627,
      "_population": 5628,
      "▁Valley": 5629,
      "▁left": 5630,
      "olden": 5631,
      "cyclopedia": 5632,
      "\"](http://": 5633,
      "*)": 5634,
      "-n": 5635,
      "-and": 5636,
      ".ni": 5637,
      "2%": 5638,
      "Home": 5639,
      "_17": 5640,
      "ds": 5641,
      "ee": 5642,
      "eval": 5643,
      "ethnologue": 5644,
      "uth": 5645,
      "▁his": 5646,
      "▁ed.).": 5647,
      "▁imp": 5648,
      "▁[c": 5649,
      "ensi": 5650,
      "index": 5651,
      "ala": 5652,
      "aran": 5653,
      "edieval": 5654,
      "atter": 5655,
      "▁C.": 5656,
      "▁maint": 5657,
      "▁made": 5658,
      "28.": 5659,
      "▁Government": 5660,
      "overty": 5661,
      "▁United": 5662,
      "_and_depend": 5663,
      "ilitary": 5664,
      "eries": 5665,
      "urity": 5666,
      "Collin": 5667,
      "ethnologue.com/": 5668,
      "226": 5669,
      "318": 5670,
      "7219": 5671,
      "9/": 5672,
      "nai": 5673,
      "ncient": 5674,
      "rust": 5675,
      "s18": 5676,
      "tation": 5677,
      "ym": 5678,
      "▁6.": 5679,
      "▁end": 5680,
      "dives": 5681,
      "](Category:": 5682,
      ".org/wiki/India": 5683,
      "▁\"Category:": 5684,
      "ances": 5685,
      "tice": 5686,
      "aldives": 5687,
      "estic": 5688,
      "asing": 5689,
      "-06": 5690,
      "▁sp": 5691,
      "▁prime": 5692,
      "ada": 5693,
      "lowing": 5694,
      "vel": 5695,
      "urch": 5696,
      "icha": 5697,
      "dem": 5698,
      "▁Be": 5699,
      "▁1960": 5700,
      "iger": 5701,
      "289": 5702,
      "▁[\"A": 5703,
      "ountain": 5704,
      "▁relations": 5705,
      "▁From": 5706,
      "otals": 5707,
      "a_d": 5708,
      "_Temple": 5709,
      "48)": 5710,
      "_East_Asia_Summit": 5711,
      "rough": 5712,
      "onstitutional": 5713,
      "quality": 5714,
      "▁country": 5715,
      "▁2,": 5716,
      "AARC_summit": 5717,
      "maputra": 5718,
      "▁Programme": 5719,
      "duct": 5720,
      "hennai": 5721,
      "▁York": 5722,
      "rovisional": 5723,
      "rahmaputra": 5724,
      "978-0-521-57219": 5725,
      "▁(India)\")": 5726,
      "rganization": 5727,
      "ichael": 5728,
      "978-0-521-57219-4": 5729,
      "-with": 5730,
      ".co": 5731,
      "/files/": 5732,
      "1-3": 5733,
      ">\n": 5734,
      "Ag": 5735,
      "ks": 5736,
      "p)": 5737,
      "ئو": 5738,
      "اوي": 5739,
      "ايشيا": 5740,
      "اقت": 5741,
      "جيا": 5742,
      "خود": 5743,
      "دم": 5744,
      "دولتِ": 5745,
      "شا": 5746,
      "قع": 5747,
      "لف": 5748,
      "لوڪ": 5749,
      "ڙپڪ": 5750,
      "ڪالف": 5751,
      "जम्मू": 5752,
      "पि": 5753,
      "भ्यता": 5754,
      "मो": 5755,
      "लों": 5756,
      "वल": 5757,
      "शा": 5758,
      "िख": 5759,
      "िम": 5760,
      "ीगढ़": 5761,
      "ॉक": 5762,
      "▁ओ": 5763,
      "disp": 5764,
      "▁[वि": 5765,
      "▁[सा": 5766,
      "▁\"ग": 5767,
      "2022": 5768,
      "ara": 5769,
      "](https://hi.wikipedia.org/wiki/ल": 5770,
      "▁कु": 5771,
      "isl": 5772,
      "▁(2014": 5773,
      "](https://sd.wikipedia.org/wiki/عرب_ليگ": 5774,
      "▁सूचना": 5775,
      "▁جمهوري": 5776,
      "▁मध्य": 5777,
      "▁महासागर": 5778,
      "etrag": 5779,
      "▁مي": 5780,
      "▁مسل": 5781,
      "▁مخت": 5782,
      "▁مضمون": 5783,
      "▁مذه": 5784,
      "ون_": 5785,
      "ानव": 5786,
      "loc": 5787,
      "र्ज": 5788,
      "▁ووڊ": 5789,
      "▁جيڪا": 5790,
      "▁اختيار": 5791,
      "▁ڪورٽ": 5792,
      "▁آڪسفورڊ": 5793,
      "▁تع": 5794,
      "▁۾،": 5795,
      "▁जी": 5796,
      "ालदीव": 5797,
      "▁दशक": 5798,
      "ेशन": 5799,
      "ेशिया": 5800,
      "115": 5801,
      "▁باب": 5802,
      "क्षर": 5803,
      "▁ٻي": 5804,
      "▁لک": 5805,
      "षाण": 5806,
      "زمرو:": 5807,
      "▁عال": 5808,
      "▁عيس": 5809,
      "160": 5810,
      "_Commission": 5811,
      "▁शक्ति": 5812,
      "▁शिक्षा": 5813,
      "काश": 5814,
      "ولين": 5815,
      "▁شا": 5816,
      "▁[Ministry": 5817,
      "ंडीगढ़": 5818,
      "▁लोग": 5819,
      "رڪيٽ": 5820,
      "ساني": 5821,
      "▁چو": 5822,
      "▁क्षेत्रीय": 5823,
      "▁[Government": 5824,
      "هرست": 5825,
      "▁पुरा": 5826,
      "▁ملڪن": 5827,
      "जनसंख्या": 5828,
      "▁जनसंख्या": 5829,
      "▁वर्ग": 5830,
      "law": 5831,
      "▁پارليامينٽ": 5832,
      "]](https://hi.wikipedia.org/wiki/भारत#cite_note-FOOTNOTEStein1998": 5833,
      "]](https://hi.wikipedia.org/wiki/भारत#cite_note-FOOTNOTESingh2009": 5834,
      "▁برصغير": 5835,
      "▁هو،": 5836,
      "▁حصي": 5837,
      "▁يونين": 5838,
      "يشنل": 5839,
      "...ڀارت\nCategory:": 5840,
      "मुख्य": 5841,
      "▁بڻجي": 5842,
      "▁انگريزي": 5843,
      "▁स्थित": 5844,
      "fication": 5845,
      "त्तराखण्ड": 5846,
      "3TRtDwAAQBAJ&pg=PA": 5847,
      "گرافي": 5848,
      "▁अप्रैल": 5849,
      "हिमाचल": 5850,
      "▁लेख:": 5851,
      "▁शताब्दी": 5852,
      "ٽرول": 5853,
      "⁠تہ": 5854,
      "▁ميٽڪالف": 5855,
      "▁عيسوي": 5856,
      "▁ميٽڪالف،": 5857,
      "2-4": 5858,
      "623": 5859,
      "Congress": 5860,
      "Oj": 5861,
      "Re": 5862,
      "ez": 5863,
      "lé": 5864,
      "ser": 5865,
      "▁[National": 5866,
      "ender": 5867,
      "#cite_ref-10": 5868,
      "#cite_note-10": 5869,
      "ango": 5870,
      "identifiers": 5871,
      "-0)\n": 5872,
      "▁Tamil": 5873,
      "▁Republic": 5874,
      "illi": 5875,
      "267": 5876,
      "mentin-": 5877,
      "_St": 5878,
      "▁Himalay": 5879,
      "imachal": 5880,
      "▁Linguistic": 5881,
      "▁Press,": 5882,
      "ublication": 5883,
      "-largest": 5884,
      "▁2024.": 5885,
      "ylee": 5886,
      "Articles\\_containing\\_": 5887,
      "\\_of\\_": 5888,
      "lémentin-": 5889,
      "lémentin-Oj": 5890,
      ".పూ.": 5891,
      ".JPG": 5892,
      "58)": 5893,
      "7).": 5894,
      "IJ": 5895,
      "Rowland": 5896,
      "Taj": 5897,
      "Vu": 5898,
      "ZVu": 5899,
      "_2004": 5900,
      "ght": 5901,
      "kZVu": 5902,
      "operation": 5903,
      "udi": 5904,
      "work": 5905,
      "}}": 5906,
      "ంతం": 5907,
      "ఆగ": 5908,
      "కళ": 5909,
      "ఖండ్": 5910,
      "గం": 5911,
      "గ్": 5912,
      "గిన": 5913,
      "గఢ్": 5914,
      "జో": 5915,
      "ట్ర": 5916,
      "తెలుగు": 5917,
      "ద్రా": 5918,
      "పద": 5919,
      "భి": 5920,
      "యో": 5921,
      "లక్ష": 5922,
      "వర": 5923,
      "శో": 5924,
      "షా": 5925,
      "హు": 5926,
      "హార్": 5927,
      "హాయ": 5928,
      "ాష్ట్ర": 5929,
      "ీక": 5930,
      "ీహార్": 5931,
      "ుల": 5932,
      "ుల్": 5933,
      "ోల్": 5934,
      "ోత్స": 5935,
      "ౌర్య": 5936,
      "din": 5937,
      "oral": 5938,
      "orce": 5939,
      "ortheast": 5940,
      "▁[p": 5941,
      "▁[హ": 5942,
      "▁\"హ": 5943,
      "▁\"ఢిల్లీ": 5944,
      "thnic": 5945,
      "aro": 5946,
      "cis": 5947,
      "్రూ": 5948,
      "](https://te.wikipedia.org/wiki/సి": 5949,
      "leg": 5950,
      "▁India*.": 5951,
      "ating": 5952,
      "ాలా": 5953,
      "ాలలో": 5954,
      "్యం": 5955,
      "icon": 5956,
      "▁found": 5957,
      "ర్ణా": 5958,
      "ర్మే": 5959,
      "ular": 5960,
      "_of_B": 5961,
      "ists": 5962,
      "▁movement": 5963,
      "లు\")": 5964,
      "▁app": 5965,
      "▁River": 5966,
      "లోక్‌సభ": 5967,
      "▁1965": 5968,
      "▁economy": 5969,
      "▁వంశ": 5970,
      "upreme": 5971,
      "aylor": 5972,
      "hai": 5973,
      "_in_New_Delhi": 5974,
      "▁Ge": 5975,
      "force": 5976,
      "ండర్": 5977,
      "abha": 5978,
      "▁rec": 5979,
      "akes": 5980,
      "](https://en.wikipedia.org/wiki/India#CITEREFB": 5981,
      "▁non-": 5982,
      "త్మా": 5983,
      "asting": 5984,
      "▁అతి": 5985,
      "ికి": 5986,
      "a_Empire": 5987,
      "avi": 5988,
      "ద్దు": 5989,
      "▁రహదార": 5990,
      "ummer": 5991,
      "మాచల్": 5992,
      "▁సామ్రాజ్య": 5993,
      "osp": 5994,
      "రువా": 5995,
      "రుణా": 5996,
      "న్నో": 5997,
      "మిజో": 5998,
      "▁ఇది": 5999,
      "▁జరి": 6000,
      "html)": 6001,
      "▁విస్త": 6002,
      "code": 6003,
      "▁శతాబ్ద": 6004,
      "ట్టు": 6005,
      "\")*,": 6006,
      "▁tex": 6007,
      "do-P": 6008,
      "రాష్ట్రాలు": 6009,
      "వేద": 6010,
      "▁రాజకీయ": 6011,
      "▁control": 6012,
      "▁ప్రాంతాలు": 6013,
      "హిమాచల్": 6014,
      "ship": 6015,
      "హాత్మా": 6016,
      "▁ప్రదేశ్\")": 6017,
      "హారాష్ట్ర": 6018,
      "శాస్త్ర": 6019,
      "రాజస్థాన్": 6020,
      "▁వాతావరణ": 6021,
      "దినోత్స": 6022,
      "బెంగాలీ": 6023,
      "యన్మార్": 6024,
      "▁ముఖ్య": 6025,
      "olkata": 6026,
      "-lead": 6027,
      "cript": 6028,
      "achine": 6029,
      "ంజాబ్": 6030,
      "▁వ్యాస": 6031,
      "గుజరాత్": 6032,
      "ఆఫ్ఘనిస్తాన్": 6033,
      "న్‌ఫర్మే": 6034,
      "వ](https://te.wikipedia.org/wiki/List_of_": 6035,
      "రిహద్దు": 6036,
      "చ్చేరి": 6037,
      "Rowland1970": 6038,
      "ర్ణాటక": 6039,
      "రుణాచల్": 6040,
      "న్‌ఫర్మేషన్": 6041,
      "-30": 6042,
      "-on-": 6043,
      "7%": 6044,
      "7_": 6045,
      "83": 6046,
      "eld": 6047,
      "oint": 6048,
      "▁[World": 6049,
      "on,": 6050,
      "arath": 6051,
      "hie": 6052,
      "ed\\_": 6053,
      "educ": 6054,
      "liance": 6055,
      ".\n15": 6056,
      "▁Registrar": 6057,
      "238": 6058,
      "type": 6059,
      "50th": 6060,
      "22.": 6061,
      "27)": 6062,
      "▁\"Government": 6063,
      "merg": 6064,
      "urrent": 6065,
      "langoff-1": 6066,
      "IMFWEO.IN_": 6067,
      "etraglia": 6068,
      "education": 6069,
      "!%20": 6070,
      "-st": 6071,
      "3–": 6072,
      "66": 6073,
      "De": 6074,
      "Library": 6075,
      "New": 6076,
      "_राज": 6077,
      "_map": 6078,
      "d=": 6079,
      "day": 6080,
      "ime": 6081,
      "ka": 6082,
      "m2": 6083,
      "اتي": 6084,
      "صدر": 6085,
      "غل": 6086,
      "هائي": 6087,
      "يب": 6088,
      "ڪار": 6089,
      "ھو": 6090,
      "को": 6091,
      "गत": 6092,
      "गू": 6093,
      "तृत": 6094,
      "म\")": 6095,
      "श्य": 6096,
      "षय": 6097,
      "हरा": 6098,
      "हित": 6099,
      "िनेमा": 6100,
      "ी.": 6101,
      "ृद्ध": 6102,
      "ेघ": 6103,
      "▁ڦ": 6104,
      "▁[ب": 6105,
      "▁[ग": 6106,
      "▁[مي": 6107,
      "▁[سانچو:": 6108,
      "tes": 6109,
      "tered": 6110,
      "▁\"ف": 6111,
      "▁\"ڏکڻ": 6112,
      "▁\"तमिल": 6113,
      "arli": 6114,
      "ارسي": 6115,
      "theh": 6116,
      "▁(ٻ": 6117,
      "▁(भारत": 6118,
      "انمار": 6119,
      "](https://sd.wikipedia.org/wiki/ڏکڻ": 6120,
      "19)": 6121,
      "▁सक": 6122,
      "्यों": 6123,
      "\n\nमुख्य": 6124,
      "▁Centre": 6125,
      "▁مط": 6126,
      "▁مرڪزي": 6127,
      "adhy": 6128,
      "▁سڏ": 6129,
      "▁سامونڊي": 6130,
      "▁سئو": 6131,
      "▁وڪي": 6132,
      "▁ايم": 6133,
      "ائڻ": 6134,
      "▁P.": 6135,
      "▁ڪيمبر": 6136,
      "ريڪي": 6137,
      "ريڪا": 6138,
      "▁अव": 6139,
      "ليه": 6140,
      "▁2012.": 6141,
      "▁M.": 6142,
      "oll": 6143,
      "ورت": 6144,
      "10)": 6145,
      "ديد": 6146,
      "ديم": 6147,
      "26.": 6148,
      "▁प्रेस": 6149,
      "▁प्रौद्योगिक": 6150,
      "्वतंत्रता": 6151,
      "▁بي": 6152,
      "search": 6153,
      "22-9": 6154,
      "-85": 6155,
      "▁व्य": 6156,
      "▁ٿين": 6157,
      "ountries": 6158,
      "▁ٻولين": 6159,
      "▁report": 6160,
      "▁J.": 6161,
      "▁ران": 6162,
      "▁رکي": 6163,
      "يٽر": 6164,
      "▁گانڌي": 6165,
      "▁शु": 6166,
      "▁संसद": 6167,
      "*](https://books.google.com.pk/books?id=": 6168,
      "ियार": 6169,
      "▁شع": 6170,
      "▁\"British": 6171,
      "_جا_": 6172,
      "▁ڏي": 6173,
      "▁लोक": 6174,
      "▁राज्य\")": 6175,
      "▁فو": 6176,
      "हाय": 6177,
      "परमाणु": 6178,
      "ोलन": 6179,
      "▁[2](https://sd.wikipedia.org/wiki/ڀارت#cite_ref-": 6180,
      "▁[1](https://sd.wikipedia.org/wiki/ڀارت#cite_ref-": 6181,
      "ेली": 6182,
      "ecu": 6183,
      "ext": 6184,
      "▁طاقت": 6185,
      "MetcalfMetcalf201": 6186,
      "html).": 6187,
      "ائيندڙ": 6188,
      "▁life": 6189,
      "▁जाती": 6190,
      "▁ٿي،": 6191,
      "▁राजवंश": 6192,
      "▁US": 6193,
      "▁स्था": 6194,
      "▁स्थान": 6195,
      "ज्ज": 6196,
      "PPP": 6197,
      "▁ڳال": 6198,
      "▁گهٽ": 6199,
      "▁واقع": 6200,
      "▁प्राचीन": 6201,
      "▁था।": 6202,
      "▁धर्म\")": 6203,
      "▁رياستي": 6204,
      "%20=%20": 6205,
      "ांग्लादेश": 6206,
      "▁ورها": 6207,
      "View": 6208,
      "pectancy": 6209,
      "महाद्वीप": 6210,
      "سازي": 6211,
      "▁Minorities": 6212,
      "بينگ": 6213,
      "▁पहले": 6214,
      "▁[पुरालेखित](https://web.archive.org/web/201": 6215,
      "▁[हिन्दी](https://hi.wikipedia.org/wiki/हिन्दी": 6216,
      "▁ايڊيشن).": 6217,
      "ildlife": 6218,
      "▁चुनावों": 6219,
      "▁सैन्य": 6220,
      "ڙپڪاري": 6221,
      "▁مختلف": 6222,
      "▁بابت": 6223,
      "▁ڪيمبرج": 6224,
      "/g": 6225,
      "32)": 6226,
      "7]](https://en.wikipedia.org/wiki/India#cite_note-FOOTNOTE": 6227,
      "9–": 6228,
      "European": 6229,
      "Gua": 6230,
      "JIJ": 6231,
      "Language": 6232,
      "NA": 6233,
      "Zva": 6234,
      "`:": 6235,
      "go": 6236,
      "ji": 6237,
      "jpe": 6238,
      "lurton": 6239,
      "mal": 6240,
      "que": 6241,
      "s_in_India": 6242,
      "{{": 6243,
      "▁ur": 6244,
      "▁\"19": 6245,
      "onom": 6246,
      "](https://en.wikipedia.org/wiki/United": 6247,
      "▁them": 6248,
      "asi": 6249,
      "lief": 6250,
      "▁Central": 6251,
      "▁summit": 6252,
      "▁pre": 6253,
      "▁painting": 6254,
      "agari": 6255,
      "▁Sec": 6256,
      "▁185": 6257,
      "▁billion": 6258,
      "ict": 6259,
      "▁Territory": 6260,
      "▁western": 6261,
      "nium": 6262,
      "▁eastern": 6263,
      "ly,": 6264,
      "▁Europe": 6265,
      "_Air": 6266,
      "135": 6267,
      "ability": 6268,
      "_Pro": 6269,
      "▁Lank": 6270,
      "apan": 6271,
      "▁Kingdom": 6272,
      "uduch": 6273,
      "▁[↑](https://en.wikipedia.org/wiki/India#cite_ref-FOOTNOTEMetcalfMetcalf2006": 6274,
      "_Nadu": 6275,
      "▁disc": 6276,
      "▁exp": 6277,
      "aking": 6278,
      "general_": 6279,
      "ikkim": 6280,
      "times.indiatimes.com/": 6281,
      "ahal": 6282,
      "amil_Nadu": 6283,
      "▁contrib": 6284,
      "-india-": 6285,
      "vanagari": 6286,
      "_Indian_general_": 6287,
      "](https://en.wikipedia.org/wiki/South_Asian": 6288,
      "%7C": 6289,
      "%7c": 6290,
      "▁(2018).": 6291,
      "Wikipedia\\_articles": 6292,
      "volution": 6293,
      "b/b": 6294,
      "arnataka": 6295,
      "▁influ": 6296,
      "▁employ": 6297,
      "cording": 6298,
      "}}`:": 6299,
      "GuaJIJ": 6300,
      "ZvaGuaJIJ": 6301,
      "{{ci": 6302,
      "uducherry": 6303,
      "_Indian_general_election": 6304,
      "ZvaGuaJIJgo": 6305,
      "4,": 6306,
      "415": 6307,
      "5%": 6308,
      ":**": 6309,
      "LM": 6310,
      "Pl": 6311,
      "SN": 6312,
      "Sanskrit": 6313,
      "c/": 6314,
      "rist": 6315,
      "sources": 6316,
      "ual": 6317,
      "yam": 6318,
      "zer": 6319,
      "▁Har": 6320,
      "\")\"": 6321,
      "arrow": 6322,
      "anda": 6323,
      "ams": 6324,
      "tical_": 6325,
      "olitical_": 6326,
      "anipur": 6327,
      "49-2": 6328,
      ".svg)": 6329,
      "NCLM": 6330,
      "-language\\_sources": 6331,
      "cyclop": 6332,
      "Uttarakhand": 6333,
      "Report.pdf)": 6334,
      "nclm.nic.in/shared/linkimages/NCLM": 6335,
      "50thReport.pdf)": 6336,
      "-language\\_sources\\_(": 6337,
      "nclm.nic.in/shared/linkimages/NCLM50thReport.pdf)": 6338,
      ".](https://upload.wikimedia.org/wikipedia/commons/thumb/": 6339,
      "0)": 6340,
      "C)": 6341,
      "St": 6342,
      "TO": 6343,
      "aul": 6344,
      "gion": 6345,
      "hra": 6346,
      "iz": 6347,
      "ode": 6348,
      "dies": 6349,
      "▁[U": 6350,
      "enerated": 6351,
      "ination": 6352,
      "International": 6353,
      "side": 6354,
      "atab": 6355,
      "▁culture": 6356,
      ".\n14": 6357,
      "▁Research": 6358,
      ".[[23": 6359,
      "▁1980": 6360,
      "▁Indus": 6361,
      "709": 6362,
      "ligions": 6363,
      "▁1994": 6364,
      "risti": 6365,
      "▁composed": 6366,
      "▁along": 6367,
      "oastal": 6368,
      "pringer": 6369,
      "▁Concise": 6370,
      "-se": 6371,
      ".\n\n": 6372,
      "1200": 6373,
      "2]](https://en.wikipedia.org/wiki/India#cite_note-": 6374,
      "C>\n": 6375,
      "IL": 6376,
      "Kashmir": 6377,
      "Provisional": 6378,
      "SAARC_summit": 6379,
      "YS": 6380,
      "_h": 6381,
      "_ب": 6382,
      "_घ": 6383,
      "_द": 6384,
      "bhasha": 6385,
      "mrit": 6386,
      "tw": 6387,
      "ward": 6388,
      "y\")": 6389,
      "ايو": 6390,
      "ب?action=edit&redlink=1": 6391,
      "تو": 6392,
      "زار": 6393,
      "ضي": 6394,
      "قري": 6395,
      "وع": 6396,
      "ِي": 6397,
      "ٺي": 6398,
      "ٻولي": 6399,
      "چندي": 6400,
      "گي": 6401,
      "ंत": 6402,
      "अभि": 6403,
      "क्": 6404,
      "खन": 6405,
      "गान": 6406,
      "ग्व": 6407,
      "च्": 6408,
      "जं": 6409,
      "टान": 6410,
      "थिल": 6411,
      "दार": 6412,
      "फोर्ड": 6413,
      "ब्ल": 6414,
      "बेट": 6415,
      "भु": 6416,
      "मु": 6417,
      "यत": 6418,
      "यर": 6419,
      "रत": 6420,
      "वास": 6421,
      "ेड": 6422,
      "ैंक": 6423,
      "ैथिल": 6424,
      "ॉल": 6425,
      "ॉंग्रेस": 6426,
      "ोस": 6427,
      "ौसेना": 6428,
      "१८": 6429,
      "२००": 6430,
      "ంతి": 6431,
      "కాల": 6432,
      "కారం": 6433,
      "ఖ్": 6434,
      "గంగా": 6435,
      "టో": 6436,
      "డిన": 6437,
      "తీ": 6438,
      "ధి": 6439,
      "ధించ": 6440,
      "నల్": 6441,
      "మన": 6442,
      "మర": 6443,
      "ర్యా": 6444,
      "లం": 6445,
      "లతో": 6446,
      "లమె": 6447,
      "ీస్": 6448,
      "ూప": 6449,
      "ూరు": 6450,
      "ెనీ": 6451,
      "ౌక": 6452,
      "▁ـ": 6453,
      "▁ٺ": 6454,
      "▁ద": 6455,
      "▁ఫ": 6456,
      "▁ار": 6457,
      "▁web": 6458,
      "▁im": 6459,
      "▁దక్షిణ": 6460,
      "▁హిందూ": 6461,
      "▁గాంధీ": 6462,
      "▁ईसा": 6463,
      "ors": 6464,
      "pecial": 6465,
      "▁[ड": 6466,
      "▁[ल": 6467,
      "▁[భారతదేశం": 6468,
      "▁[ఢిల్లీ": 6469,
      "▁[दक्षिण": 6470,
      "▁[ڏکڻ": 6471,
      "▁[पाकिस्तान": 6472,
      "▁\"ب": 6473,
      "▁\"انڊ": 6474,
      "▁\"दक्षिण": 6475,
      "▁\"पाकिस्तान": 6476,
      "esti": 6477,
      "](https://hi.wikipedia.org/wiki/न": 6478,
      "](https://hi.wikipedia.org/wiki/पाकिस्तान": 6479,
      "ارا": 6480,
      "▁(S": 6481,
      "](https://sd.wikipedia.org/wiki/ب": 6482,
      "▁साल": 6483,
      "\\_identifiers": 6484,
      "▁جنگ": 6485,
      "ootb": 6486,
      "ారస": 6487,
      "▁India](https://en.wikipedia.org/wiki/G": 6488,
      "▁मो": 6489,
      "▁मौ": 6490,
      "sive": 6491,
      "links": 6492,
      "राम": 6493,
      "▁مت": 6494,
      "ాలను": 6495,
      "adwe": 6496,
      "78.": 6497,
      "](https://hi.wikipedia.org/wiki/भारत_के": 6498,
      "స్](https://te.wikipedia.org/wiki/": 6499,
      "hell": 6500,
      "▁పెద్ద": 6501,
      "▁اد": 6502,
      "▁اڪ": 6503,
      "▁اهي": 6504,
      "▁اسٽ": 6505,
      "▁border": 6506,
      "▁far": 6507,
      "FOOTNOTENational_Informatics_Centre2005": 6508,
      "ర్లు": 6509,
      "00–సా.శ.పూ.": 6510,
      "raz": 6511,
      "ver,": 6512,
      "▁2014.": 6513,
      "▁تاريخ": 6514,
      "▁**قومي": 6515,
      "▁پڻ": 6516,
      "_की_": 6517,
      "▁women": 6518,
      ".[[3": 6519,
      ".[[40": 6520,
      "ंगाना": 6521,
      "▁వే": 6522,
      "▁भारत\")": 6523,
      "hap": 6524,
      "_industry": 6525,
      "▁Nehru": 6526,
      "▁نمبر": 6527,
      "▁بنيا": 6528,
      "رام": 6529,
      "▁Gu": 6530,
      "architecture": 6531,
      "▁هٿي": 6532,
      "▁[\"H": 6533,
      "▁ٿيا": 6534,
      "abh": 6535,
      "▁gre": 6536,
      "ي_ٻولي": 6537,
      "▁आर्थिक": 6538,
      "త్తం": 6539,
      "▁عرب": 6540,
      "▁(సా.శ.13": 6541,
      "▁(సా.శ.15": 6542,
      "▁قديم": 6543,
      "▁అనే": 6544,
      "▁forest": 6545,
      "▁ప్రజ": 6546,
      "ड़ियाँ": 6547,
      "తం\")": 6548,
      "▁उन": 6549,
      "▁گھ": 6550,
      "ంచి": 6551,
      "काता": 6552,
      "aves": 6553,
      "▁इंडिया": 6554,
      "ी](https://hi.wikipedia.org/wiki/द": 6555,
      "▁ఆఫ్": 6556,
      "emon": 6557,
      "برون": 6558,
      "▁సాం": 6559,
      "ార్లమె": 6560,
      "ंडोन": 6561,
      "▁هندي": 6562,
      "▁هندو": 6563,
      "undament": 6564,
      "▁राज्यक्षेत्र": 6565,
      "ندر": 6566,
      "▁विस्त": 6567,
      "▁विदेश": 6568,
      "iley": 6569,
      "కిస్థాన్": 6570,
      "▁నే": 6571,
      "▁నగర": 6572,
      "ंग्रेजी": 6573,
      "ोलकाता": 6574,
      "ंध्र": 6575,
      "▁ext": 6576,
      "▁దేశం": 6577,
      "▁अन्त": 6578,
      "▁क्षेत्रों": 6579,
      "\\_errors:\\_": 6580,
      "▁नेतृत": 6581,
      "نيپال": 6582,
      "ockey": 6583,
      "केन्द्र": 6584,
      "టిబె": 6585,
      "▁ٽو": 6586,
      "▁\"अंग्रेज़ी": 6587,
      "్రీ.పూ.": 6588,
      "hmed": 6589,
      "anta": 6590,
      "▁देश\")": 6591,
      "](https://en.wikipedia.org/wiki/List_of_SAARC_summit": 6592,
      "▁जनवरी": 6593,
      "ండియా": 6594,
      "हरिया": 6595,
      "ूर्वी": 6596,
      "▁produc": 6597,
      "पुरम": 6598,
      "▁ఎక్కువ": 6599,
      "▁ఎన్నో": 6600,
      "▁मेला\"),": 6601,
      "ohen": 6602,
      "▁[![A": 6603,
      "ंग्रेज़ी_भाषा": 6604,
      "िशा": 6605,
      "▁technology": 6606,
      "▁پرديش": 6607,
      "ashmiri": 6608,
      "▁regions": 6609,
      "_సం": 6610,
      "▁२०१": 6611,
      "▁Hinduism": 6612,
      "▁سنسڪرت": 6613,
      "▁second": 6614,
      "समिया": 6615,
      "▁./వర్గం:Wikipedia\\_articles": 6616,
      "ज्ञाप": 6617,
      "न्नई": 6618,
      "CS1\\_errors:\\_": 6619,
      "టుంబ": 6620,
      "बंधन": 6621,
      "▁ٻيٽ](https://sd.wikipedia.org/wiki/": 6622,
      "▁पुरालेखित।,": 6623,
      "▁Islands\")": 6624,
      "▁భారత్": 6625,
      "kingdom": 6626,
      "industani": 6627,
      "▁मानसून": 6628,
      "_और_संघ": 6629,
      "మెరి": 6630,
      "وڪيپيڊيا": 6631,
      "▁మొత్తం": 6632,
      "▁युग": 6633,
      "रक्षा": 6634,
      "वादी": 6635,
      "utes": 6636,
      "unjabi": 6637,
      "▁स्वतंत्रता": 6638,
      "_के_आधार_पर_भारत_के_राज्यों_की_सूची": 6639,
      "وانائي": 6640,
      "तेलंगाना": 6641,
      "బాద్": 6642,
      "eserve": 6643,
      "ంపెనీ": 6644,
      "चेन्नई": 6645,
      "▁ماڻهو": 6646,
      "▁बहुत": 6647,
      "पीठ": 6648,
      "హ్మ": 6649,
      "▁ఏర్": 6650,
      "▁جهڙوڪ": 6651,
      "क्सफोर्ड": 6652,
      "▁\"हिन्दी\")": 6653,
      "▁ڪيترائي": 6654,
      "▁groups": 6655,
      "▁निर्माण": 6656,
      "్రిటిషు": 6657,
      "omason": 6658,
      "त्रिपुरा": 6659,
      "akshadwe": 6660,
      "_BRICS_summit": 6661,
      "▁ثقافت": 6662,
      "▁Persian": 6663,
      "तेलुगू": 6664,
      "ائونسل": 6665,
      "भीमबेट": 6666,
      "▁అత్యధిక": 6667,
      "overeign": 6668,
      "fghanistan": 6669,
      "झारखंड": 6670,
      "छत्तीसगढ़": 6671,
      "िंधु": 6672,
      "ీర్ణ": 6673,
      "▁मुख्य": 6674,
      "దక్షిణ_ఆసియా": 6675,
      "▁برطانوي": 6676,
      "ब्बत": 6677,
      "▁[अंग्रेज़ी](https://hi.wikipedia.org/wiki/अंग्रेज़ी_भाषा": 6678,
      "Home_Affairs": 6679,
      "خودم": 6680,
      "▁ओर": 6681,
      "▁कुछ": 6682,
      "▁(2014).": 6683,
      "▁فوجي": 6684,
      "▁summits\")": 6685,
      "ZvaGuaJIJgoC&pg=PA": 6686,
      "mritsar": 6687,
      "अभिज्ञाप": 6688,
      "च्छ": 6689,
      "ootball": 6690,
      "](https://en.wikipedia.org/wiki/List_of_SAARC_summits": 6691,
      "akshadweep": 6692,
      "भीमबेटका": 6693,
      "अभिज्ञापक": 6694,
      "-D": 6695,
      "-ex": 6696,
      "/hindi": 6697,
      "0–": 6698,
      "4).": 6699,
      "53)": 6700,
      "At": 6701,
      "CH": 6702,
      "_10": 6703,
      "br": 6704,
      "bit": 6705,
      "ns": 6706,
      "nar": 6707,
      "▁36": 6708,
      "org": 6709,
      "orne": 6710,
      "ties/": 6711,
      "rec": 6712,
      "asht": 6713,
      "entury": 6714,
      "[[18": 6715,
      "umeration": 6716,
      "24.": 6717,
      "287,": 6718,
      "cts": 6719,
      "_in_T": 6720,
      "▁2001": 6721,
      "▁Nicobar": 6722,
      "▁H.": 6723,
      "▁Journal": 6724,
      "▁[Singh": 6725,
      "▁International": 6726,
      "-59": 6727,
      "vention": 6728,
      "▁addition": 6729,
      "▁3,287,": 6730,
      "▁3,287,26": 6731,
      "-S": 6732,
      "2)[[": 6733,
      "350": 6734,
      "AS": 6735,
      "CCN": 6736,
      "_38": 6737,
      "_43": 6738,
      "ek": 6739,
      "gra": 6740,
      "hdr": 6741,
      "ues": 6742,
      "▁°": 6743,
      "▁Qu": 6744,
      "arty": 6745,
      "▁(c": 6746,
      "2013": 6747,
      "ediff": 6748,
      "▁Chand": 6749,
      "vey": 6750,
      "▁Reg": 6751,
      "▁Rothermund": 6752,
      "▁Report": 6753,
      "content": 6754,
      "505": 6755,
      "maint": 6756,
      "▁[\"P": 6757,
      "▁religious": 6758,
      "▁name": 6759,
      "▁human": 6760,
      "▁Languages": 6761,
      "2011religion": 6762,
      "_128": 6763,
      "feb": 6764,
      "978-0-521-6": 6765,
      "ote:": 6766,
      "▁sector": 6767,
      "countries_and_depend": 6768,
      "▁News": 6769,
      "cat.org/": 6770,
      "encies_by": 6771,
      "▁Plateau": 6772,
      "actbook/": 6773,
      "issile": 6774,
      "▁dependencies": 6775,
      "cia.gov/": 6776,
      "▁Wikidata": 6777,
      "Census2011religion": 6778,
      "AAJ).": 6779,
      "uthority": 6780,
      "▁maint:": 6781,
      "ristian": 6782,
      "countries_and_dependencies_by": 6783,
      ".\")\n\n": 6784,
      "01": 6785,
      "2),": 6786,
      "3-8": 6787,
      "4]](https://en.wikipedia.org/wiki/India#cite_note-FOOTNOTE": 6788,
      "Constituent": 6789,
      "Clémentin-Oj": 6790,
      "MC": 6791,
      "MID": 6792,
      "OV": 6793,
      "_di": 6794,
      "_26": 6795,
      "casting": 6796,
      "fer": 6797,
      "hal": 6798,
      "ham": 6799,
      "ker": 6800,
      "lood": 6801,
      "mil": 6802,
      "mir": 6803,
      "disha": 6804,
      "▁[f": 6805,
      "ines": 6806,
      "reed": 6807,
      "2025": 6808,
      "th_BRICS_summit": 6809,
      "aland": 6810,
      "alli": 6811,
      "arlo": 6812,
      "India_": 6813,
      "outheast": 6814,
      "▁Civil": 6815,
      "▁sq": 6816,
      "▁caus": 6817,
      "▁class": 6818,
      "loth": 6819,
      "lose": 6820,
      "▁tree": 6821,
      "▁14.": 6822,
      "_of_2011": 6823,
      "\"),[[": 6824,
      "uns": 6825,
      "▁This": 6826,
      "▁when": 6827,
      "upt": 6828,
      "▁2007.": 6829,
      "oples": 6830,
      "tures": 6831,
      "1993": 6832,
      "_Population": 6833,
      "_Paper": 6834,
      "akers": 6835,
      "▁these": 6836,
      "▁dom": 6837,
      "ishing": 6838,
      "▁hum": 6839,
      "▁house": 6840,
      "17.": 6841,
      "ia\")": 6842,
      "emographic": 6843,
      "▁dec": 6844,
      "▁def": 6845,
      "▁development": 6846,
      "▁[↑](https://en.wikipedia.org/wiki/India#cite_ref-FOOTNOTEB": 6847,
      "▁[British": 6848,
      "ibcode": 6849,
      "_Totals": 6850,
      "▁Press](https://en.wikipedia.org/wiki/C": 6851,
      "▁language\"),": 6852,
      "o-operation": 6853,
      "_1_of_2011": 6854,
      "▁[Dyson": 6855,
      "angetic": 6856,
      "ikhism": 6857,
      "▁\"Re": 6858,
      "](https://en.wikipedia.org/wiki/Re": 6859,
      "▁liter": 6860,
      "emplate_": 6861,
      "▁\"International": 6862,
      "674": 6863,
      "_Lank": 6864,
      "▁languages\")": 6865,
      "rancis": 6866,
      "odiversity": 6867,
      "ological": 6868,
      "bian": 6869,
      "uisine": 6870,
      "gypt": 6871,
      "▁wide": 6872,
      "ighth": 6873,
      "ondon": 6874,
      "struc": 6875,
      "▁km2": 6876,
      "uilding": 6877,
      "arnatic": 6878,
      "ssociation": 6879,
      "roadcasting": 6880,
      "▁urban": 6881,
      "Provisional_Population": 6882,
      "Clémentin-Ojha2014": 6883,
      "_Paper_1_of_2011": 6884,
      "_Totals_Paper_1_of_2011": 6885,
      "Provisional_Population_Totals_Paper_1_of_2011": 6886,
      "Provisional_Population_Totals_Paper_1_of_2011_India": 6887,
      ")?action=edit&redlink=1": 6888,
      ")\"),": 6889,
      "-!%20": 6890,
      "/national": 6891,
      "1-4": 6892,
      "2%29": 6893,
      "421": 6894,
      "AG": 6895,
      "Kumar": 6896,
      "\\*": 6897,
      "_ن": 6898,
      "_इ": 6899,
      "_श": 6900,
      "_36": 6901,
      "_धर्म": 6902,
      "ading": 6903,
      "dy": 6904,
      "kb": 6905,
      "nc": 6906,
      "voy": 6907,
      "ئر": 6908,
      "اس": 6909,
      "تاب": 6910,
      "حث": 6911,
      "حي": 6912,
      "عل": 6913,
      "مج": 6914,
      "نجاب": 6915,
      "پت": 6916,
      "پور": 6917,
      "ٿر": 6918,
      "ँची": 6919,
      "अंग्रेज़ी": 6920,
      "उप": 6921,
      "एन": 6922,
      "टना": 6923,
      "तन": 6924,
      "द्वार": 6925,
      "पार": 6926,
      "भग": 6927,
      "मरी": 6928,
      "रि": 6929,
      "स्व": 6930,
      "ेद": 6931,
      "ोला": 6932,
      "▁۲": 6933,
      "▁औ": 6934,
      "▁भा": 6935,
      "▁ئي": 6936,
      "▁ले": 6937,
      "▁भाग": 6938,
      "▁[य": 6939,
      "▁[ह": 6940,
      "▁[اي": 6941,
      "▁[انڊ": 6942,
      "▁\"य": 6943,
      "](https://hi.wikipedia.org/wiki/दक्षिण": 6944,
      "](https://hi.wikipedia.org/wiki/तमिल": 6945,
      "▁काल": 6946,
      "▁कॉंग्रेस": 6947,
      "्रय": 6948,
      "](https://sd.wikipedia.org/wiki/ت": 6949,
      "भारत)": 6950,
      "भारतीय": 6951,
      "ries/": 6952,
      "▁सभा": 6953,
      "▁सित": 6954,
      "▁समाज": 6955,
      "▁मई": 6956,
      "▁मन": 6957,
      "▁मह": 6958,
      "▁मिल": 6959,
      "▁मशीन": 6960,
      "-100": 6961,
      "agen": 6962,
      "▁سڌ": 6963,
      "▁سگ": 6964,
      "▁سمج": 6965,
      "ेंगल": 6966,
      "र्ध": 6967,
      "](https://hi.wikipedia.org/wiki/भारत_के_राज्य": 6968,
      "▁وٽ": 6969,
      "्तु": 6970,
      "▁اش": 6971,
      "▁اها": 6972,
      "▁اولهه": 6973,
      "▁آئي": 6974,
      "uni": 6975,
      "▁में,": 6976,
      "هندو": 6977,
      "▁अभ": 6978,
      "ليم": 6979,
      "▁تب": 6980,
      "▁پهري": 6981,
      "▁जब": 6982,
      "103": 6983,
      "▁द्वीप": 6984,
      "_(भारत)": 6985,
      "▁Dictionary": 6986,
      "▁नव": 6987,
      "_से": 6988,
      "_साम": 6989,
      "▁N.": 6990,
      "▁برا": 6991,
      "يو.": 6992,
      "_Act": 6993,
      "-345": 6994,
      "▁व्या": 6995,
      "1999": 6996,
      "ell": 6997,
      "▁ٻن": 6998,
      "▁ٻين": 6999,
      "indhi": 7000,
      "▁des": 7001,
      "▁dynasty": 7002,
      "يونين": 7003,
      "▁قو": 7004,
      "▁\"Sanskrit": 7005,
      "▁गई": 7006,
      "▁رنگ": 7007,
      "ड़िया": 7008,
      "▁शहर": 7009,
      "▁[मध्य": 7010,
      "*](https://web.archive.org/web/201": 7011,
      "]](https://hi.wikipedia.org/wiki/भारत#cite_note-pib": 7012,
      "म्भ": 7013,
      "_के_अन": 7014,
      "संधान": 7015,
      "त्तरी": 7016,
      "countries/": 7017,
      "▁ڏان": 7018,
      "▁लिये": 7019,
      "34238": 7020,
      "رڪز": 7021,
      "سان\\_": 7022,
      "▁यूनिवर्सिट": 7023,
      "o-d": 7024,
      "▁ٽن": 7025,
      "▁ٽي": 7026,
      "▁ٽيڪنالاجي": 7027,
      "▁خاص": 7028,
      "▁जनजाति": 7029,
      "▁राजधान": 7030,
      "-symbols": 7031,
      "▁پرڏي": 7032,
      "▁سڀا": 7033,
      "रुणा": 7034,
      "قومي%20": 7035,
      "▁هو.": 7036,
      "▁سيڙپڪاري": 7037,
      "▁ڪنٽرول": 7038,
      "اڪستان](https://sd.wikipedia.org/wiki/پ": 7039,
      "_سلطنت": 7040,
      "▁[پاڪستان](https://sd.wikipedia.org/wiki/پ": 7041,
      "▁\"پاڪستان": 7042,
      "ोर्ट": 7043,
      "▁جڏهن⁠تہ": 7044,
      "%E0%A4%B": 7045,
      "▁साम्राज्य\")": 7046,
      "▁(2018),": 7047,
      "धुनिक": 7048,
      "11934238": 7049,
      "ूर्ण": 7050,
      "▁تحريڪ": 7051,
      "▁شروعات": 7052,
      "▁لاڳاپ": 7053,
      "▁گهڻو": 7054,
      "▁پنهنجي": 7055,
      "emocracy": 7056,
      "bank.org/": 7057,
      "چنائي": 7058,
      "▁ڊالر": 7059,
      "_देशों_की_सूची": 7060,
      "ताजमह": 7061,
      "ravidian": 7062,
      "ouncil": 7063,
      "क्षरता": 7064,
      "▁عالمي": 7065,
      "kZVuDwAAQBAJ&pg=PA": 7066,
      "▁(ٻيو": 7067,
      "adhya": 7068,
      "▁स्थाप": 7069,
      "%20=%20-!%20": 7070,
      "-language\\_sources\\_(en": 7071,
      "▁[पाकिस्तान](https://hi.wikipedia.org/wiki/पाकिस्तान": 7072,
      "/national-symbols": 7073,
      "ेंगलुरु": 7074,
      "_साम्राज्य": 7075,
      "_के_अनुसार": 7076,
      "▁यूनिवर्सिटी": 7077,
      "▁[پاڪستان](https://sd.wikipedia.org/wiki/پاڪستان": 7078,
      "-h": 7079,
      "/news/": 7080,
      "41)": 7081,
      "46)": 7082,
      "_30": 7083,
      "fli": 7084,
      "most": 7085,
      "sch": 7086,
      "wana": 7087,
      "▁[n": 7088,
      "▁\"World": 7089,
      "isc": 7090,
      "19.": 7091,
      "▁sur": 7092,
      "▁prom": 7093,
      "▁political": 7094,
      "▁All": 7095,
      ".\n10": 7096,
      ".\n11": 7097,
      "stani": 7098,
      "269,": 7099,
      "▁1970": 7100,
      "▁1962": 7101,
      "▁only": 7102,
      "▁near": 7103,
      "▁Ocean": 7104,
      "1):": 7105,
      "akistani": 7106,
      "indicat": 7107,
      "▁[Kulke": 7108,
      "ervice": 7109,
      "▁use": 7110,
      "▁Short": 7111,
      "f/f": 7112,
      "economictimes.indiatimes.com/": 7113,
      "▁(1,269,": 7114,
      "▁estimate": 7115,
      "olonial": 7116,
      "arliest": 7117,
      "{{cite": 7118,
      "indicator": 7119,
      "%3": 7120,
      "4]](https://en.wikipedia.org/wiki/India#cite_note-": 7121,
      "5]](https://en.wikipedia.org/wiki/India#cite_note-FOOTNOTE": 7122,
      ":G": 7123,
      ":IN": 7124,
      "F)": 7125,
      "GDP": 7126,
      "IF": 7127,
      "IUCN": 7128,
      "Ze": 7129,
      "_v": 7130,
      "_జాబితా": 7131,
      "aid": 7132,
      "b)": 7133,
      "equality": 7134,
      "ies": 7135,
      "mit": 7136,
      "oin": 7137,
      "pture": 7138,
      "ren": 7139,
      "tain": 7140,
      "ually": 7141,
      "via": 7142,
      "ఆంధ": 7143,
      "కీ": 7144,
      "కాలు": 7145,
      "క్రమ": 7146,
      "గర్": 7147,
      "డో": 7148,
      "థి": 7149,
      "నె": 7150,
      "నాలు": 7151,
      "పించ": 7152,
      "బడ్డ": 7153,
      "భర": 7154,
      "మహ": 7155,
      "మై": 7156,
      "యన": 7157,
      "రంగ": 7158,
      "లయా": 7159,
      "వార": 7160,
      "శీ": 7161,
      "షనల్": 7162,
      "స్య": 7163,
      "ృద్ధి": 7164,
      "ెంగ": 7165,
      "ేర": 7166,
      "–24": 7167,
      "▁:": 7168,
      "▁z": 7169,
      "▁hist": 7170,
      "▁దా": 7171,
      "▁నాగరికత": 7172,
      "▁టెక్నాలజీ": 7173,
      "digarh": 7174,
      "orn": 7175,
      "](Template": 7176,
      "anat": 7177,
      "report": 7178,
      "thang": 7179,
      "alk": 7180,
      "him": 7181,
      "hild": 7182,
      "్రై": 7183,
      "్రప్రదేశ్": 7184,
      "ashi": 7185,
      "](https://te.wikipedia.org/wiki/ఢిల్లీ": 7186,
      "▁India](https://en.wikipedia.org/wiki/C": 7187,
      "edne": 7188,
      "\n\nభారతదేశం": 7189,
      "▁Cooperation": 7190,
      "▁At": 7191,
      "▁colle": 7192,
      "ad-": 7193,
      "adra": 7194,
      "adras": 7195,
      "fied": 7196,
      "దేశం": 7197,
      "దేశాల": 7198,
      "దేశాలు": 7199,
      "స్\")": 7200,
      "▁fam": 7201,
      "▁Park": 7202,
      "ర్‌": 7203,
      "rahm": 7204,
      "లు?action=edit&redlink=1": 7205,
      "రాఠ": 7206,
      "]](https://en.wikipedia.org/wiki/India#cite_note-Combined": 7207,
      "23.": 7208,
      "ola": 7209,
      "▁B.;": 7210,
      "▁కి": 7211,
      "▁కో": 7212,
      "క్టో": 7213,
      "నియా": 7214,
      "▁వర్": 7215,
      "▁వారస": 7216,
      "116": 7217,
      "irth": 7218,
      "ల్వే": 7219,
      "▁[↑](https://en.wikipedia.org/wiki/India#cite_ref-4": 7220,
      "▁సరిహద్దు": 7221,
      "%20A": 7222,
      "▁మన": 7223,
      "▁మూ": 7224,
      "▁Games": 7225,
      "ండమా": 7226,
      "▁చిన్న": 7227,
      "▁growth": 7228,
      "▁rema": 7229,
      "▁religion": 7230,
      "_Park": 7231,
      "తాన": 7232,
      "ముఖ": 7233,
      "త్వం": 7234,
      "▁through": 7235,
      "▁her": 7236,
      "▁(సా.శ.14": 7237,
      "▁(సా.శ.17": 7238,
      "ులు,": 7239,
      "–సా.శ.15": 7240,
      "–సా.శ.17": 7241,
      "▁ప్రతి": 7242,
      "▁ప్రస్తు": 7243,
      "▁ప్రకారం": 7244,
      "▁ప్రముఖ": 7245,
      "ంచిన": 7246,
      "కుడు": 7247,
      "47)": 7248,
      "నుమ": 7249,
      "-55": 7250,
      "▁\"Mughal": 7251,
      "▁రో": 7252,
      "▁రంగ": 7253,
      "▁రవాణా": 7254,
      "▁సాధించ": 7255,
      "](https://en.wikipedia.org/wiki/Mugh": 7256,
      "-107-0": 7257,
      "ష్టు": 7258,
      "▁within": 7259,
      "](https://en.wikipedia.org/wiki/British": 7260,
      "▁differ": 7261,
      "ంతో": 7262,
      "arden": 7263,
      "▁తరువా": 7264,
      "పాలన": 7265,
      "ం](https://te.wikipedia.org/wiki/భారతీయ": 7266,
      "ultur": 7267,
      ",_కేంద్రపాలిత": 7268,
      "గుర్": 7269,
      "నేషనల్": 7270,
      "ports": 7271,
      "▁ప్రాంతం": 7272,
      "▁రాజ్యం](https://te.wikipedia.org/wiki/": 7273,
      "వందే": 7274,
      "▁బా": 7275,
      "▁బహు": 7276,
      "▁బెంగ": 7277,
      ".jpg/250px-S": 7278,
      "ాల్లో": 7279,
      "_Force": 7280,
      "శ్వా": 7281,
      "ారిటీ": 7282,
      "ynth": 7283,
      "▁ప్రాంతాలు\")": 7284,
      "hattis": 7285,
      "గోళ": 7286,
      "బడిన": 7287,
      "▁ago": 7288,
      "handigarh": 7289,
      "తున్న": 7290,
      "న్నిక": 7291,
      "▁స్వాతంత్ర్య": 7292,
      "▁కాలంలో": 7293,
      "ographical": 7294,
      "Dyson2018),": 7295,
      "_1960": 7296,
      "rishna": 7297,
      "c=0": 7298,
      "▁river": 7299,
      "_Islands": 7300,
      "ంపి": 7301,
      "బెంగాల్": 7302,
      "▁especial": 7303,
      "rmy": 7304,
      "nergy": 7305,
      "ెలవు": 7306,
      "attle": 7307,
      "](https://te.wikipedia.org/wiki/భారతదేశంలో_": 7308,
      "▁Buddhist": 7309,
      ".htm)": 7310,
      "▁అధికారిక": 7311,
      "ilgrim": 7312,
      "▁mathema": 7313,
      "▁2018](https://en.wikipedia.org/wiki/India#CITEREFDyson2018),": 7314,
      "ఆర్ధిక": 7315,
      "▁పట్టణ": 7316,
      "▁కాశ్మీరు": 7317,
      "ంగ్లీషు": 7318,
      "▁increased": 7319,
      "▁అయిన": 7320,
      "▁రెండు": 7321,
      "violence": 7322,
      "ాల్దీవులు": 7323,
      "do-Aryan": 7324,
      "ట్రో": 7325,
      "ుల్తాన": 7326,
      "osphere": 7327,
      "రాష్ట్రాలు,_కేంద్రపాలిత": 7328,
      "▁వ్యాసం:": 7329,
      "ార్లమెంట": 7330,
      "▁./వర్గం:Wikipedia\\_articles\\_with\\_": 7331,
      "▁ఏర్ప": 7332,
      "▁Quote:": 7333,
      "ఆంధ్రప్రదేశ్": 7334,
      "లయాళ": 7335,
      "ednekar": 7336,
      "](https://en.wikipedia.org/wiki/Mughal_": 7337,
      "▁especially": 7338,
      "రాష్ట్రాలు,_కేంద్రపాలిత_ప్రాంత": 7339,
      "/).": 7340,
      "0/0": 7341,
      "1-0": 7342,
      "2-10": 7343,
      "41": 7344,
      "418": 7345,
      "534": 7346,
      "Alig": 7347,
      "Pe": 7348,
      "Pylee": 7349,
      "aci": 7350,
      "ault": 7351,
      "eub": 7352,
      "even": 7353,
      "largest": 7354,
      "sm": 7355,
      "vent": 7356,
      "▁ob": 7357,
      "▁(2011": 7358,
      "▁(India)": 7359,
      "\\_s": 7360,
      "id.": 7361,
      "▁Agency": 7362,
      "▁1971": 7363,
      "113": 7364,
      "509-6": 7365,
      "308": 7366,
      "36)": 7367,
      "39)": 7368,
      "exis": 7369,
      "-pro": 7370,
      "on-Alig": 7371,
      "jection": 7372,
      "bi.n": 7373,
      "IAF": 7374,
      "230-345": 7375,
      "...]": 7376,
      "4/4": 7377,
      "d/d": 7378,
      "▁People": 7379,
      "1-9509-6": 7380,
      "▁Monetary": 7381,
      "lm.ni": 7382,
      "-4051-9509-6": 7383,
      "ncbi.n": 7384,
      "Pylee2003": 7385,
      "euborne": 7386,
      "on-Aligned": 7387,
      "230-34549-2": 7388,
      "lm.nih": 7389,
      "ncbi.nlm.nih": 7390,
      "-F": 7391,
      "/we": 7392,
      "221": 7393,
      "400": 7394,
      "82": 7395,
      "8–": 7396,
      ";[[": 7397,
      "British": 7398,
      "DIA": 7399,
      "E﻿": 7400,
      "Official": 7401,
      "SYS": 7402,
      "_آ": 7403,
      "_राज्य": 7404,
      "_एशिया": 7405,
      "atp": 7406,
      "hu": 7407,
      "iN": 7408,
      "اڊ": 7409,
      "تون": 7410,
      "حم": 7411,
      "خر": 7412,
      "دنيا": 7413,
      "ملا": 7414,
      "نڪا": 7415,
      "هات": 7416,
      "هستي": 7417,
      "وي_": 7418,
      "وزيراعظم": 7419,
      "يه": 7420,
      "ٽو": 7421,
      "پائن": 7422,
      "پريم": 7423,
      "ڄي": 7424,
      "ڄمون": 7425,
      "ڊي": 7426,
      "ڙھ": 7427,
      "ंतर": 7428,
      "ईल": 7429,
      "ख्य": 7430,
      "घर": 7431,
      "चें": 7432,
      "तम": 7433,
      "तुल": 7434,
      "थियार": 7435,
      "फा": 7436,
      "बा": 7437,
      "मर": 7438,
      "मार": 7439,
      "वेश": 7440,
      "वैद": 7441,
      "शन": 7442,
      "िबंध": 7443,
      "ृष": 7444,
      "ृष्ण": 7445,
      "ोट": 7446,
      "्लेट": 7447,
      "▁,": 7448,
      "▁५": 7449,
      "▁ला": 7450,
      "▁old": 7451,
      "people": 7452,
      "▁[ف": 7453,
      "▁[प्र": 7454,
      "▁[तमिल": 7455,
      "▁[गुजरात": 7456,
      "▁\"ड": 7457,
      "▁\"ह": 7458,
      "an,": 7459,
      "anata": 7460,
      "hill": 7461,
      "ारो": 7462,
      "ारम्भ": 7463,
      "](https://hi.wikipedia.org/wiki/ग": 7464,
      "](https://hi.wikipedia.org/wiki/द": 7465,
      "▁कम": 7466,
      "▁किन": 7467,
      "्रह": 7468,
      "omo": 7469,
      "▁सह": 7470,
      "▁स्तर": 7471,
      "▁सभ्यता": 7472,
      "\\_क": 7473,
      "\\_سان\\_": 7474,
      "▁جديد": 7475,
      "?action=edit&redlink=1#": 7476,
      "ets": 7477,
      "ette": 7478,
      "▁popul": 7479,
      "▁capita": 7480,
      "▁سپريم": 7481,
      "ेंस": 7482,
      "ين،": 7483,
      "र्ट": 7484,
      "▁وسي": 7485,
      "्त्र": 7486,
      "▁اقت": 7487,
      "▁ڪج": 7488,
      "▁ڪندڙ": 7489,
      "▁آر": 7490,
      "▁آھن": 7491,
      "▁آبهوا": 7492,
      "▁آهستي": 7493,
      "▁men": 7494,
      "▁main": 7495,
      "ريت": 7496,
      "ريد": 7497,
      "▁अमेर": 7498,
      "▁अलग": 7499,
      "▁अर्थव्यवस्था": 7500,
      "▁تان": 7501,
      "▁تقري": 7502,
      "▁توانائي": 7503,
      "▁Muslim": 7504,
      "▁پرا": 7505,
      "▁Routledge": 7506,
      "वियत": 7507,
      "▁जिन": 7508,
      "107": 7509,
      "ाले": 7510,
      "ालैंड": 7511,
      "▁देव": 7512,
      "▁दोन": 7513,
      "روپ": 7514,
      "न्ध": 7515,
      "▁*India": 7516,
      "▁बंगाल": 7517,
      "▁बड़े": 7518,
      "oung": 7519,
      "117": 7520,
      "▁प्रधानमंत्री": 7521,
      "भाजन": 7522,
      "▁सेवा": 7523,
      "▁काम": 7524,
      "tudies": 7525,
      "▁व्यवस्था": 7526,
      "▁ٿا،": 7527,
      "1991": 7528,
      "▁لنڪا": 7529,
      "15/": 7530,
      "▁आक": 7531,
      "▁आद": 7532,
      "▁ڀارت\")": 7533,
      "يون،": 7534,
      "geoh": 7535,
      "▁परि": 7536,
      "▁शा": 7537,
      "api": 7538,
      "يڪل": 7539,
      "▁संस्थान": 7540,
      "](https://hi.wikipedia.org/wiki/भारत#cite_ref-pib": 7541,
      "](https://hi.wikipedia.org/wiki/भारत#cite_ref-langoff": 7542,
      "]](https://hi.wikipedia.org/wiki/भारत#cite_note-langoff-1": 7543,
      "ndhra": 7544,
      "ियन": 7545,
      "ी](https://hi.wikipedia.org/wiki/म": 7546,
      "ogenerated": 7547,
      "-7mar": 7548,
      "संबर": 7549,
      "सां": 7550,
      "384": 7551,
      "त्ति": 7552,
      "▁रक्षा": 7553,
      "ڪوب": 7554,
      "▁ڏن": 7555,
      "▁ڏها": 7556,
      "_Bank": 7557,
      "ستان\")": 7558,
      "▁ص.": 7559,
      "aith": 7560,
      "जापान": 7561,
      "▁\"मध्य": 7562,
      "▁چين": 7563,
      "▁فر": 7564,
      "ledhill": 7565,
      "हाँ": 7566,
      "▁./زمرو:CS1\\_errors:\\_": 7567,
      "ोली": 7568,
      "](https://hi.wikipedia.org/wiki/मध्य": 7569,
      "نيٰ": 7570,
      "120]](https://hi.wikipedia.org/wiki/भारत#cite_note-langoff-1": 7571,
      "ureau": 7572,
      "▁CITEREFStein1998": 7573,
      "▁CITEREFSingh2009": 7574,
      "▁معنيٰ": 7575,
      "द्यालय": 7576,
      "Asher2006": 7577,
      "AsherAsher2006": 7578,
      "](https://sd.wikipedia.org/wiki/ڀارت_جو_": 7579,
      "](https://sd.wikipedia.org/wiki/ڀارت_جون_": 7580,
      "गुप्त": 7581,
      "_Fund": 7582,
      "▁هيون": 7583,
      "▁سنه": 7584,
      "▁سنڌي": 7585,
      "ukesh": 7586,
      "1971": 7587,
      "](https://hi.wikipedia.org/wiki/पंजाब": 7588,
      "](https://hi.wikipedia.org/wiki/पश्चिम": 7589,
      "خاص:EditPage/": 7590,
      "Stein1998),": 7591,
      "Singh2009),": 7592,
      "ों_की_सूची?action=edit&redlink=1": 7593,
      "▁निभा": 7594,
      "](https://hi.wikipedia.org/wiki/भारत#CITEREFStein1998),": 7595,
      "](https://hi.wikipedia.org/wiki/भारत#CITEREFSingh2009),": 7596,
      "1947)": 7597,
      "وٽان": 7598,
      "▁رياستون": 7599,
      "▁2009](https://hi.wikipedia.org/wiki/भारत#CITEREFSingh2009),": 7600,
      "▁थे": 7601,
      "▁पाकिस्तान": 7602,
      "▁مشترڪه": 7603,
      "▁उपमहाद्वीप": 7604,
      "▁See": 7605,
      "آمد": 7606,
      "कालीन": 7607,
      "▁मंदिर\")": 7608,
      "नागालैंड": 7609,
      "7/7": 7610,
      "autogenerated": 7611,
      "धीरे": 7612,
      "▁رهيو": 7613,
      "▁سالن": 7614,
      "▁ٿيو،": 7615,
      "▁آھي.": 7616,
      "रोहर": 7617,
      "▁वर्षों": 7618,
      "troduction": 7619,
      "_from": 7620,
      "▁گڏيل": 7621,
      "_وب?action=edit&redlink=1": 7622,
      "%20=%20%20%5B": 7623,
      "IBR": 7624,
      "IBSYS": 7625,
      "▁انتظامي": 7626,
      "▁देख": 7627,
      "تحد": 7628,
      "\\_مضمون": 7629,
      "▁पार्टी": 7630,
      "▁وب\")\n": 7631,
      "▁وب](https://sd.wikipedia.org/wiki/سانچو:": 7632,
      "▁آزاديءَ": 7633,
      "▁ٻڌل": 7634,
      "▁सिनेमा\"),": 7635,
      "'''قومي%20": 7636,
      "▁1998](https://hi.wikipedia.org/wiki/भारत#CITEREFStein1998),": 7637,
      "/articleshow/5": 7638,
      "ांति": 7639,
      "ांधी": 7640,
      "▁दृश्य": 7641,
      "rajbhasha": 7642,
      "▁هئا": 7643,
      "جموعي": 7644,
      "▁होती": 7645,
      "▁भूमिका": 7646,
      "▁दिसंबर": 7647,
      "प्राचीन": 7648,
      "شاهه": 7649,
      "ublications/": 7650,
      "_map_en": 7651,
      "हित्य": 7652,
      "ेघालय": 7653,
      "thehindu": 7654,
      "▁\"पाकिस्तान\")": 7655,
      "▁नेतृत्व": 7656,
      "خودمختيار": 7657,
      "حث:": 7658,
      "▁پهريون": 7659,
      "▁ڏانهن": 7660,
      "▁پرڏيھي": 7661,
      "रुणाचल": 7662,
      "%20=%20-!%20'''قومي%20": 7663,
      "هاتما": 7664,
      "चेंज": 7665,
      "वैदिक": 7666,
      "िबंधीय": 7667,
      "geohack": 7668,
      "](https://hi.wikipedia.org/wiki/भारत#cite_ref-langoff_128": 7669,
      "-7mar2011": 7670,
      "120]](https://hi.wikipedia.org/wiki/भारत#cite_note-langoff-128)": 7671,
      "خاص:EditPage/سانچو:": 7672,
      "%20=%20%20%5B%5B": 7673,
      "-T": 7674,
      "-e": 7675,
      "-i": 7676,
      "-India": 7677,
      "220": 7678,
      "2-1": 7679,
      "5]](https://en.wikipedia.org/wiki/India#cite_note-": 7680,
      "5/5": 7681,
      "677": 7682,
      "7C": 7683,
      "96": 7684,
      "9]](https://en.wikipedia.org/wiki/India#cite_note-": 7685,
      "9]](https://en.wikipedia.org/wiki/India#cite_note-FOOTNOTE": 7686,
      "Allchin": 7687,
      "Emb": 7688,
      "Front": 7689,
      "Gangetic": 7690,
      "Petraglia": 7691,
      "_&": 7692,
      "_con": 7693,
      "_se": 7694,
      "_dom": 7695,
      "aha": 7696,
      "ather": 7697,
      "baki": 7698,
      "hut": 7699,
      "io": 7700,
      "ited": 7701,
      "khand": 7702,
      "lue": 7703,
      "page": 7704,
      "rance": 7705,
      "subcontinent": 7706,
      "uted": 7707,
      "▁eng": 7708,
      "orship": 7709,
      "▁[978-0-19-882905-8": 7710,
      "▁[978-81": 7711,
      "▁\"U": 7712,
      "ences": 7713,
      "inan": 7714,
      "anchi": 7715,
      "rest": 7716,
      "alit": 7717,
      "artition": 7718,
      "erved": 7719,
      "](https://en.wikipedia.org/wiki/World": 7720,
      "▁(ed.).": 7721,
      "ately": 7722,
      "-05": 7723,
      "ed,": 7724,
      "ederal": 7725,
      "lima": 7726,
      "atri": 7727,
      "atna": 7728,
      "atures": 7729,
      "▁sha": 7730,
      "ager": 7731,
      "ader": 7732,
      "lock": 7733,
      "angam": 7734,
      "urry": 7735,
      "ichell": 7736,
      "_of_N": 7737,
      "_of_Congress": 7738,
      "very": 7739,
      "ourbaki": 7740,
      "▁Michael": 7741,
      "iland": 7742,
      "olnar": 7743,
      "▁work": 7744,
      "265": 7745,
      "▁By": 7746,
      "india.com/": 7747,
      "hak": 7748,
      "-459": 7749,
      "29)": 7750,
      "ubram": 7751,
      "ritsch": 7752,
      "harkhand": 7753,
      "27.": 7754,
      "▁Library": 7755,
      "▁before": 7756,
      "▁\"Cambridge": 7757,
      "▁[Cambridge": 7758,
      "_Mahal": 7759,
      "gham": 7760,
      "▁[↑](https://en.wikipedia.org/wiki/India#cite_ref-FOOTNOTEStein2010": 7761,
      "osa": 7762,
      "ibli": 7763,
      "▁\"Special:BookSources/978-81": 7764,
      "▁original](http://www.": 7765,
      "▁\"En": 7766,
      "inema": 7767,
      "](https://en.wikipedia.org/wiki/En": 7768,
      "athur": 7769,
      "▁range": 7770,
      "onstitution_of_India": 7771,
      "▁[New": 7772,
      "▁2007](https://en.wikipedia.org/wiki/India#CITEREF": 7773,
      "amese": 7774,
      "ambridge_University_Press": 7775,
      "aceu": 7776,
      "alayalam": 7777,
      "erves": 7778,
      "▁vill": 7779,
      "ripura": 7780,
      "a/a": 7781,
      "▁Pradesh\")": 7782,
      "](Special:BookSources/978-81": 7783,
      "_2024": 7784,
      "_War": 7785,
      "hola": 7786,
      "cms).": 7787,
      "▁[India](https://en.wikipedia.org/wiki/India": 7788,
      "▁|\n\nCategory:": 7789,
      "vatsyayan-lord-4": 7790,
      "vatsyayan-lord_43": 7791,
      "cheduled": 7792,
      "▁mi)": 7793,
      "▁including": 7794,
      "6]](https://en.wikipedia.org/wiki/India#cite_note-vatsyayan-lord-4": 7795,
      "owever,": 7796,
      "catalogue": 7797,
      "harmaceu": 7798,
      "Ministry_of_Home_Affairs": 7799,
      "DwAAQBAJ).": 7800,
      "do-Pakistani": 7801,
      "hmedabad": 7802,
      "reedom": 7803,
      "▁Press](https://en.wikipedia.org/wiki/Cambridge_University_Press": 7804,
      "PetragliaAllchin": 7805,
      "inancial": 7806,
      "Ministry_of_Home_Affairs_1960": 7807,
      "-j": 7808,
      "-27": 7809,
      ".t": 7810,
      "3%": 7811,
      "56)": 7812,
      "613": 7813,
      "DR": 7814,
      "XL": 7815,
      "_to": 7816,
      "_World": 7817,
      "_term": 7818,
      "round": 7819,
      "t,": 7820,
      "tle": 7821,
      "▁9.": 7822,
      "▁(nominal)": 7823,
      "-138": 7824,
      "=1&": 7825,
      "\n\n**": 7826,
      "ISSN": 7827,
      "icus": 7828,
      "254": 7829,
      "ilk": 7830,
      "266": 7831,
      "%20M": 7832,
      "▁Health": 7833,
      "30)": 7834,
      "▁[\"G": 7835,
      "▁[\"World": 7836,
      "▁[Sharma": 7837,
      ")[[3": 7838,
      "_Modi": 7839,
      "al_N": 7840,
      "%2C_India": 7841,
      "arkar": 7842,
      "amily": 7843,
      "/population": 7844,
      "jee": 7845,
      "_%282%29": 7846,
      "▁Chinese": 7847,
      ".asp?": 7848,
      "▁28.": 7849,
      "Wikipedia:": 7850,
      ".worldbank.org/": 7851,
      "bbc.co": 7852,
      "bbc.co.uk": 7853,
      "-k": 7854,
      "0/": 7855,
      "2nd": 7856,
      "314": 7857,
      "76.": 7858,
      "8225": 7859,
      "95": 7860,
      "Flag": 7861,
      "Mumbai": 7862,
      "Pakistan": 7863,
      "SE": 7864,
      "_per": 7865,
      "_2011": 7866,
      "hā": 7867,
      "i,": 7868,
      "iu": 7869,
      "ive": 7870,
      "sra": 7871,
      "▁7.": 7872,
      "▁|\n\n|": 7873,
      "▁(2007": 7874,
      "acred": 7875,
      "1980": 7876,
      "▁Comp": 7877,
      "▁pri": 7878,
      "ooks": 7879,
      "▁Ad": 7880,
      "▁Society": 7881,
      "ical_": 7882,
      "▁Public": 7883,
      "ull": 7884,
      "21.": 7885,
      "▁Trade": 7886,
      ".[[14": 7887,
      "opland": 7888,
      "-4)": 7889,
      "2221": 7890,
      "_and_C": 7891,
      "40px-": 7892,
      "\n\n[![": 7893,
      "_Mon": 7894,
      "_Mar": 7895,
      "▁\"Ministry": 7896,
      "ogni": 7897,
      "_Nations": 7898,
      "articles/": 7899,
      "orities/": 7900,
      "37)": 7901,
      "37545": 7902,
      "▁V.": 7903,
      "ody": 7904,
      "/profile": 7905,
      "▁2019.\n": 7906,
      "▁adop": 7907,
      "▁contin": 7908,
      "1975": 7909,
      "▁(2017).": 7910,
      "▁China": 7911,
      "▁2020.": 7912,
      "IMFWEO.IN-": 7913,
      "tiger": 7914,
      "asia/": 7915,
      "library": 7916,
      "▁US$": 7917,
      "▁Minorities,": 7918,
      "13537545": 7919,
      "atabase": 7920,
      "978-0-521-68225": 7921,
      "srael": 7922,
      "▁(2007).": 7923,
      "978-0-521-68225-1": 7924,
      "-A": 7925,
      "-R": 7926,
      "-w": 7927,
      "-in": 7928,
      ".م": 7929,
      "/t": 7930,
      "8+": 7931,
      "Chennai": 7932,
      "Mah": 7933,
      "Tarlo": 7934,
      "[ڀارت": 7935,
      "_۾": 7936,
      "_te": 7937,
      "_ri": 7938,
      "_50": 7939,
      "_16": 7940,
      "_వి": 7941,
      "_కాశ్మీ": 7942,
      "aos": 7943,
      "be": 7944,
      "business/": 7945,
      "fun": 7946,
      "ij": 7947,
      "jan": 7948,
      "janta": 7949,
      "mill": 7950,
      "odia": 7951,
      "rune": 7952,
      "ses": 7953,
      "uci": 7954,
      "yth": 7955,
      "yer": 7956,
      "اظ": 7957,
      "بلي": 7958,
      "ثر": 7959,
      "حاظ": 7960,
      "دن": 7961,
      "ذيب": 7962,
      "رص": 7963,
      "رار": 7964,
      "رون": 7965,
      "سم": 7966,
      "س\")": 7967,
      "شار": 7968,
      "صر": 7969,
      "قط": 7970,
      "قو": 7971,
      "لب": 7972,
      "له": 7973,
      "لور": 7974,
      "لام": 7975,
      "هڻ": 7976,
      "و.": 7977,
      "ودي": 7978,
      "وڙي": 7979,
      "يڊ": 7980,
      "ٿري": 7981,
      "ٿائيل": 7982,
      "ڀوٽان": 7983,
      "چل": 7984,
      "ڏيون": 7985,
      "کار": 7986,
      "گو": 7987,
      "ھندي": 7988,
      "अरब": 7989,
      "इन": 7990,
      "ईद": 7991,
      "ऍथ": 7992,
      "ऑक्सफोर्ड": 7993,
      "कणी": 7994,
      "ख़": 7995,
      "गध": 7996,
      "जल": 7997,
      "जपा": 7998,
      "जपुरी": 7999,
      "जिस्ट": 8000,
      "ताल": 8001,
      "थम": 8002,
      "थल": 8003,
      "दल": 8004,
      "दान": 8005,
      "नोल": 8006,
      "न्तर": 8007,
      "फ्रां": 8008,
      "बी": 8009,
      "बू": 8010,
      "बार": 8011,
      "मत": 8012,
      "मृत": 8013,
      "यपुर": 8014,
      "रस": 8015,
      "ल्ल": 8016,
      "शत": 8017,
      "शोक": 8018,
      "हम": 8019,
      "हें": 8020,
      "ाक": 8021,
      "ुरा": 8022,
      "ुम्ब": 8023,
      "ूबर": 8024,
      "ेक": 8025,
      "ॉग": 8026,
      "५७": 8027,
      "ంస్కృ": 8028,
      "ఉత్తరా": 8029,
      "ఖో": 8030,
      "ఘాలయ": 8031,
      "చ్": 8032,
      "టై": 8033,
      "టర్": 8034,
      "డమ్": 8035,
      "డఖ్": 8036,
      "ణే": 8037,
      "ణంగా": 8038,
      "తే": 8039,
      "తెల": 8040,
      "దరంగ": 8041,
      "నో": 8042,
      "నంద": 8043,
      "బర్": 8044,
      "బార్": 8045,
      "యె": 8046,
      "రె": 8047,
      "లడఖ్": 8048,
      "ళా": 8049,
      "ళి": 8050,
      "శు": 8051,
      "హించ": 8052,
      "ుకు": 8053,
      "ెన్న": 8054,
      "ెట్రో": 8055,
      "ేతి": 8056,
      "ేఘాలయ": 8057,
      "ైనిక": 8058,
      "ొగలు": 8059,
      "ోళ": 8060,
      "‌కా": 8061,
      "‌మహ": 8062,
      "▁۱": 8063,
      "▁ఐ": 8064,
      "▁ఖ": 8065,
      "▁edi": 8066,
      "▁रा": 8067,
      "▁ना": 8068,
      "▁–సా.శ.": 8069,
      "▁భారతీయ": 8070,
      "▁led": 8071,
      "▁80": 8072,
      "▁here": 8073,
      "▁దినోత్స": 8074,
      "▁kingdom": 8075,
      ".org/wiki/Special:Search": 8076,
      "▁[Y": 8077,
      "▁[ع": 8078,
      "▁[ٻ": 8079,
      "▁[श": 8080,
      "▁[राज्य": 8081,
      "▁[రాష్ట్ర": 8082,
      "▁[జన": 8083,
      "▁[గో": 8084,
      "▁[برطانوي": 8085,
      "temp": 8086,
      "▁\"ع": 8087,
      "▁\"مي": 8088,
      "▁\"పా": 8089,
      "▁\"साँच": 8090,
      "▁\"జన": 8091,
      "▁\"గో": 8092,
      "▁\"साँचा:": 8093,
      "▁\"మూస:": 8094,
      "▁\"برطانوي": 8095,
      "ino-": 8096,
      "tile": 8097,
      "arl": 8098,
      "arth": 8099,
      "hip": 8100,
      "cip": 8101,
      "ofker": 8102,
      "](https://hi.wikipedia.org/wiki/हिन्द": 8103,
      "](https://hi.wikipedia.org/wiki/साँच": 8104,
      "](https://hi.wikipedia.org/wiki/साँचा:": 8105,
      "्रार": 8106,
      "](https://sd.wikipedia.org/wiki/ع": 8107,
      "acmill": 8108,
      "asian": 8109,
      "](https://te.wikipedia.org/wiki/G": 8110,
      "](https://te.wikipedia.org/wiki/భారతదేశ": 8111,
      "](https://te.wikipedia.org/wiki/గో": 8112,
      "](https://te.wikipedia.org/wiki/మూస:": 8113,
      "▁सूच": 8114,
      "▁सीमा": 8115,
      "▁جتي": 8116,
      "ారస్వ": 8117,
      "atel": 8118,
      "▁मन्दिर": 8119,
      "्यूरो": 8120,
      "amy": 8121,
      "\n\n:": 8122,
      "entr": 8123,
      "etry": 8124,
      "▁sty": 8125,
      "▁school": 8126,
      "रात": 8127,
      "agle": 8128,
      "▁पड़": 8129,
      "▁प्लेट": 8130,
      "▁ميمبر": 8131,
      "▁ملين": 8132,
      "ాలె": 8133,
      "▁Asher": 8134,
      "▁can": 8135,
      "وندي": 8136,
      "ونيشيا": 8137,
      "▁Sabha": 8138,
      "▁سر": 8139,
      "ानगर": 8140,
      "ingap": 8141,
      "ing\\_S": 8142,
      "▁وج": 8143,
      "▁ووٽ": 8144,
      "స్ట": 8145,
      "స్వాతంత్ర్య": 8146,
      "▁हाला": 8147,
      "▁हथियार": 8148,
      "ume": 8149,
      "well": 8150,
      "▁పర": 8151,
      "▁పండు": 8152,
      "urk": 8153,
      "uran": 8154,
      "urasian": 8155,
      "▁four": 8156,
      "▁fol": 8157,
      "▁Punjab": 8158,
      "▁ڪام": 8159,
      "▁ڪرڪيٽ": 8160,
      "▁man": 8161,
      "ريل": 8162,
      "ريلو": 8163,
      "ratic": 8164,
      "rabian": 8165,
      "ches": 8166,
      "याधी": 8167,
      "िकी": 8168,
      "stor": 8169,
      "stre": 8170,
      "itation": 8171,
      "ourts": 8172,
      "▁Man": 8173,
      "▁Machine": 8174,
      "▁Temple": 8175,
      "లు](https://te.wikipedia.org/wiki/": 8176,
      "ोंकणी": 8177,
      "రాన్": 8178,
      "రాస్య": 8179,
      "▁ज़": 8180,
      "ورن": 8181,
      "ालर": 8182,
      "▁would": 8183,
      "▁top": 8184,
      "▁B.": 8185,
      "▁కే": 8186,
      "▁కోర్": 8187,
      "240": 8188,
      "result": 8189,
      "न्स": 8190,
      "త్రిక": 8191,
      "▁1949": 8192,
      "క్స్": 8193,
      "క్కి": 8194,
      "▁emerg": 8195,
      "▁बार": 8196,
      "▁बने": 8197,
      "▁बड़ा": 8198,
      "▁వె": 8199,
      "▁వంట": 8200,
      "▁प्रस": 8201,
      "भाष": 8202,
      "▁नौसेना": 8203,
      "hailand": 8204,
      "508": 8205,
      "_in_M": 8206,
      "ంగో": 8207,
      "_सा": 8208,
      "▁సముద్ర": 8209,
      "▁సూచ": 8210,
      "▁సౌక": 8211,
      "▁Ne": 8212,
      "▁بارب": 8213,
      "رات": 8214,
      "راتي": 8215,
      "्टॉक": 8216,
      "▁Greek": 8217,
      "్రామ": 8218,
      "▁هزار": 8219,
      "_Ar": 8220,
      "_A7C": 8221,
      "ండా": 8222,
      "ండీ": 8223,
      "ండ్య": 8224,
      "▁वृद्ध": 8225,
      "क्षण": 8226,
      "क्षद्वीप": 8227,
      "▁ٻه": 8228,
      "▁ge": 8229,
      "▁لوڪ": 8230,
      "15)": 8231,
      "ngineering": 8232,
      "▁आन्द": 8233,
      "తాజ్": 8234,
      "నాథ": 8235,
      "तिब्बत": 8236,
      "▁([م": 8237,
      "సింది.": 8238,
      "▁[SAARC": 8239,
      "త్వా": 8240,
      "▁عدال": 8241,
      "▁عرص": 8242,
      "ains": 8243,
      "امن": 8244,
      "▁third": 8245,
      "s/p": 8246,
      "يلن": 8247,
      "▁(సా.శ.16": 8248,
      "ులు?action=edit&redlink=1": 8249,
      "थाईल": 8250,
      "]](https://hi.wikipedia.org/wiki/भारत#cite_note-10": 8251,
      "–సా.శ.19": 8252,
      "▁قوت": 8253,
      "▁ق.م": 8254,
      "▁అభి": 8255,
      "री](https://hi.wikipedia.org/wiki/": 8256,
      "▁\"St": 8257,
      "▁गठ": 8258,
      "▁ره": 8259,
      "▁Organization": 8260,
      "▁ప్రజా": 8261,
      "తం?action=edit&redlink=1": 8262,
      "aph": 8263,
      "otal": 8264,
      "a_1": 8265,
      "▁[महाराष्ट्र": 8266,
      "कांक": 8267,
      "▁\"Ch": 8268,
      "▁\"Chin": 8269,
      "పూర్": 8270,
      "▁[Ch": 8271,
      "▁[Central": 8272,
      "ప్రిల్": 8273,
      "](https://en.wikipedia.org/wiki/Ch": 8274,
      "ولفن": 8275,
      "▁ఉంట": 8276,
      "▁ఉత్తర": 8277,
      "ियान": 8278,
      "हिमालय": 8279,
      "ogri": 8280,
      "▁now": 8281,
      "▁dem": 8282,
      "▁deci": 8283,
      "ڪيم": 8284,
      "برص": 8285,
      "لائيشيا": 8286,
      "▁సామా": 8287,
      "వాద": 8288,
      "విధ": 8289,
      "ార్ఖండ్": 8290,
      "ameez": 8291,
      "ंडमान": 8292,
      "క్షరాస్య": 8293,
      "▁ڏسو": 8294,
      "ربت": 8295,
      "_Building": 8296,
      "▁लिया": 8297,
      "▁صدي": 8298,
      "▁सागर": 8299,
      "ندا": 8300,
      "▁\"महाराष्ट्र": 8301,
      "▁विज्ञान": 8302,
      "لاس": 8303,
      "పుర": 8304,
      "हाब": 8305,
      "▁నడి": 8306,
      "परेशन": 8307,
      "▁करना": 8308,
      "▁करता": 8309,
      "ंग्रेज": 8310,
      "49)": 8311,
      "▁ఇండియా": 8312,
      "_Goa": 8313,
      "اتح": 8314,
      "मीरात": 8315,
      "audi": 8316,
      "_River": 8317,
      "](https://hi.wikipedia.org/wiki/महाराष्ट्र": 8318,
      "▁areas": 8319,
      "▁\"مدد:": 8320,
      "▁(PPP": 8321,
      "ambodia": 8322,
      "](https://sd.wikipedia.org/wiki/مدد:": 8323,
      "▁[2](https://hi.wikipedia.org/wiki/भारत#cite_ref-FOOTNOTE": 8324,
      "درآباد": 8325,
      "▁Ved": 8326,
      "▁Vol": 8327,
      "▁[1](https://hi.wikipedia.org/wiki/भारत#cite_ref-FOOTNOTE": 8328,
      "గుప్": 8329,
      "డుకు": 8330,
      "నేషియా": 8331,
      "eccan": 8332,
      "ంగాణ": 8333,
      "ants": 8334,
      "▁జన": 8335,
      "راني": 8336,
      "angered": 8337,
      "లియా": 8338,
      "▁ملڪ\")": 8339,
      "▁ప్రాచ": 8340,
      "▁విభ": 8341,
      "▁వివిధ": 8342,
      "_and_union_territ": 8343,
      "▁సంఘ": 8344,
      "ండిచ్చేరి": 8345,
      "▁चार": 8346,
      "▁like": 8347,
      "33-7": 8348,
      "694": 8349,
      "राष्ट्रीय_स": 8350,
      "हारजिस्ट": 8351,
      "mergency": 8352,
      "▁Urdu": 8353,
      "▁[![The": 8354,
      "ा_वार": 8355,
      "िवस": 8356,
      "▁वर्षा": 8357,
      "arch_2004": 8358,
      "▁2007\n": 8359,
      "▁fig": 8360,
      "_भारतीय_": 8361,
      "do-European": 8362,
      "జీరియా": 8363,
      "▁ڀي": 8364,
      "ంకేతి": 8365,
      "alaysia": 8366,
      "వేలీ": 8367,
      "▁घरेलू": 8368,
      "▁سنڌ": 8369,
      "समूह": 8370,
      "](https://hi.wikipedia.org/wiki/पूर्व": 8371,
      "national-language": 8372,
      "ष्ठ": 8373,
      ":South": 8374,
      "न्नड़": 8375,
      "_ملڪ": 8376,
      "▁भाषा\")[[": 8377,
      "బియా": 8378,
      "▁”سنڌو": 8379,
      "▁millen": 8380,
      "▁[Archived](https://web.archive.org/web/20210": 8381,
      "డామన్": 8382,
      "▁రాష్ట్రపతి": 8383,
      "आईएस": 8384,
      "▁agriculture": 8385,
      "▁था,": 8386,
      "త్రిపుర": 8387,
      "▁./श्रेणी:Harv\\_and\\_Sfn\\_no-target\\_errors\n8": 8388,
      "athematics": 8389,
      "श्मीरी": 8390,
      "▁ڊي.": 8391,
      "_కాల": 8392,
      "दाख": 8393,
      "ेर-": 8394,
      "▁ايشيا\")": 8395,
      "liamentary": 8396,
      "वर्ष": 8397,
      "▁రైల్వే": 8398,
      "ڊوچي": 8399,
      "▁शासित": 8400,
      "య్యూ": 8401,
      "▁change": 8402,
      "త్తీస్": 8403,
      "▁ప్రదేశ్](https://te.wikipedia.org/wiki/": 8404,
      "ريندر": 8405,
      "ंपन": 8406,
      "ंपरा": 8407,
      "▁[↑](https://hi.wikipedia.org/wiki/भारत#cite_ref-10": 8408,
      "నాగాలా": 8409,
      "त्पत्ति": 8410,
      "–123": 8411,
      "_Organisation": 8412,
      "▁\"జమ్మూ": 8413,
      "_dance": 8414,
      "pib.nic.in/": 8415,
      "▁مقب": 8416,
      "▁subcontinent\")": 8417,
      "](https://books.google.com/books?id=3TRtDwAAQBAJ&pg=PA": 8418,
      "بنگال": 8419,
      "▁పాకిస్తాన్": 8420,
      "▁اڳوا": 8421,
      "▁अपने": 8422,
      "▁زند": 8423,
      "ार्कट": 8424,
      "▁तटीय": 8425,
      "%E0%A4%A": 8426,
      "కోవ": 8427,
      "కోబార్": 8428,
      "](https://te.wikipedia.org/wiki/జమ్మూ": 8429,
      "ల్లవ": 8430,
      "▁ويو.": 8431,
      "▁species": 8432,
      "लिंग": 8433,
      "भूटान": 8434,
      "▁These": 8435,
      "▁Force": 8436,
      ".net": 8437,
      "जयपुर": 8438,
      "जयनगर": 8439,
      "sites/": 8440,
      "िज़ोर": 8441,
      "▁rock": 8442,
      "णिपुर": 8443,
      "णिपुरी": 8444,
      "लोकसभा": 8445,
      "शासित_प्रदेश": 8446,
      "▁2025.": 8447,
      "రేబియా": 8448,
      "▁सुरक्षा": 8449,
      "्रांति": 8450,
      "ominion": 8451,
      "టాక్": 8452,
      "ataraj": 8453,
      "▁మాత్ర": 8454,
      "▁هوندي": 8455,
      "్రిటిష్": 8456,
      "_of_South_Asia": 8457,
      "\\_ملڪ": 8458,
      "पातकाल": 8459,
      "వెను": 8460,
      "ూచి": 8461,
      "భారతదేశ_రాష్ట్రాలు,_కేంద్రపాలిత_ప్రాంత": 8462,
      "_न्या": 8463,
      "धिराज्य": 8464,
      "▁آمد": 8465,
      "▁जलवायु": 8466,
      "▁घाटी": 8467,
      "chedule": 8468,
      "culpture": 8469,
      "▁ٿا.": 8470,
      "▁قبضي": 8471,
      "▁लगभग": 8472,
      "ूरोप": 8473,
      "ప్పటిక": 8474,
      "▁ڳوليو": 8475,
      "▁ڳوليو\")": 8476,
      "شمير": 8477,
      "भोजपुरी": 8478,
      "▁ذري": 8479,
      "▁واپاري": 8480,
      "లేషియా": 8481,
      "▁majority": 8482,
      "▁మొదల": 8483,
      "Spear199024": 8484,
      "▁ڌرم": 8485,
      "▁वार्ता:": 8486,
      "स्लाम": 8487,
      "▁occup": 8488,
      "लयालम": 8489,
      "ద్యు": 8490,
      "▁सदस": 8491,
      "elangana": 8492,
      "▁చిత్ర": 8493,
      "ద్వీప్": 8494,
      "▁ఉపఖండ": 8495,
      "ంటుంది.": 8496,
      "▁దేశంలోని": 8497,
      "▁राजनीतिक": 8498,
      "▁[पंजाब](https://hi.wikipedia.org/wiki/पंजाब": 8499,
      "▁కాంగ్రెసు": 8500,
      "بنگلاديش": 8501,
      "ensity": 8502,
      "Collingham": 8503,
      "▁Before": 8504,
      "▁مسلمان": 8505,
      "Taj_Mahal": 8506,
      "ఆగష్టు": 8507,
      "లక్షద్వీప్": 8508,
      "హాయం:": 8509,
      "ీకరణ": 8510,
      "ోల్‌కా": 8511,
      "మిజోరా": 8512,
      "_राजवंश": 8513,
      "▁(भारत)\")": 8514,
      "▁शुरू": 8515,
      "▁ڳاله": 8516,
      "بينگالي": 8517,
      "▁employed": 8518,
      "खनऊ": 8519,
      "ర్యానా": 8520,
      "▁[ఢిల్లీ](https://te.wikipedia.org/wiki/ఢిల్లీ": 8521,
      "razil": 8522,
      "_industry_in_India": 8523,
      "برونائي": 8524,
      "టిబెట్": 8525,
      "हरियाणा": 8526,
      "మెరికా": 8527,
      "mirates": 8528,
      "lothing": 8529,
      "▁widely": 8530,
      "حيدرآباد": 8531,
      "▁تبدي": 8532,
      "▁\"پاڪستان\")": 8533,
      "IFT": 8534,
      "బడ్డీ": 8535,
      "ేరళ": 8536,
      "్రైస్త": 8537,
      "ండమాన్": 8538,
      "ెలవుదిన": 8539,
      "حمد": 8540,
      "तुल्य": 8541,
      "फाएं": 8542,
      "ृषि": 8543,
      "▁दोनों": 8544,
      "ڪوبار": 8545,
      "▁ڏهاڪي": 8546,
      "▁निभाई": 8547,
      "%20=%20%20%5B%5BFile:": 8548,
      "harmaceutical": 8549,
      "Tarlo1996": 8550,
      "runei": 8551,
      "ٿائيلينڊ": 8552,
      "ऍथनोल": 8553,
      "ुम्बई": 8554,
      "తెలంగాణ": 8555,
      "ెన్నై": 8556,
      "‌మహల్": 8557,
      "▁\"साँचा": 8558,
      "ino-Indian": 8559,
      "](https://hi.wikipedia.org/wiki/साँचा_वार": 8560,
      "acmillan": 8561,
      "▁Asher,": 8562,
      "ingapore": 8563,
      "याधीश": 8564,
      "_in_March_2004": 8565,
      "▁वृद्धि": 8566,
      "తాజ్‌మహల్": 8567,
      "▁عرصي": 8568,
      "▁[महाराष्ट्र](https://hi.wikipedia.org/wiki/महाराष्ट्र": 8569,
      "క్షరాస్యత": 8570,
      "▁\"महाराष्ट्र\")": 8571,
      "_and_union_territories": 8572,
      "हारजिस्ट्रार": 8573,
      "ڊوچيري": 8574,
      "నాగాలాండ్": 8575,
      "ार्कटिका": 8576,
      "](https://te.wikipedia.org/wiki/జమ్మూ_కాశ్మీ": 8577,
      "Taj_Mahal_in_March_2004": 8578,
      "ోల్‌కాతా": 8579,
      "ऍथनोलॉग": 8580,
      "](https://hi.wikipedia.org/wiki/साँचा_वार्ता:": 8581,
      "*](http://": 8582,
      ".edu": 8583,
      "3).": 8584,
      "51)": 8585,
      "IC": 8586,
      "Pathak": 8587,
      "Pednekar": 8588,
      "Raju": 8589,
      "YC": 8590,
      "_india": 8591,
      "_languages": 8592,
      "▁X": 8593,
      "▁40": 8594,
      "▁4.": 8595,
      "▁[978": 8596,
      "onk": 8597,
      "tification": 8598,
      "title": 8599,
      "alvert": 8600,
      "▁(a)": 8601,
      "▁(b)": 8602,
      "-07": 8603,
      "ISE": 8604,
      "▁Policy": 8605,
      ".[[10": 8606,
      "▁Day": 8607,
      "▁John": 8608,
      "270": 8609,
      "conomist": 8610,
      "▁Asia:": 8611,
      "ports/": 8612,
      "orthographic": 8613,
      "ripati": 8614,
      "▁(2016).": 8615,
      "_region": 8616,
      "6124": 8617,
      "Articles\\_with\\_": 8618,
      "▁[*An": 8619,
      "place": 8620,
      "ultiple": 8621,
      "urnell": 8622,
      "_projection": 8623,
      "uiper": 8624,
      "itzel": 8625,
      "KumarPathak": 8626,
      "PednekarRaju": 8627,
      "orthographic_projection": 8628,
      "KumarPathakPednekarRaju": 8629,
      "KumarPathakPednekarRaju2006": 8630,
      ",_India": 8631,
      "-the": 8632,
      "/C-0": 8633,
      "0-0)": 8634,
      "1%20M": 8635,
      "2-0": 8636,
      "700": 8637,
      "Gaz": 8638,
      "Hindustan": 8639,
      "HDR": 8640,
      "KI": 8641,
      "Lot": 8642,
      "W00": 8643,
      "_st": 8644,
      "cet": 8645,
      "p.org/": 8646,
      "source": 8647,
      "▁har": 8648,
      "wik": 8649,
      "kil": 8650,
      "en:": 8651,
      "ene": 8652,
      "isni": 8653,
      "the-world": 8654,
      "20034": 8655,
      "\n\nCategory:": 8656,
      ").[[": 8657,
      "agore": 8658,
      "▁tril": 8659,
      "▁bot": 8660,
      "▁market": 8661,
      "▁Mana": 8662,
      "▁Te": 8663,
      "▁Ram": 8664,
      ".jp/auth": 8665,
      "ilber": 8666,
      "106": 8667,
      "▁Economy": 8668,
      "▁2002": 8669,
      "▁Home": 8670,
      "▁Hindus": 8671,
      "▁Gana": 8672,
      "1857": 8673,
      "ablish": 8674,
      "AAM": 8675,
      "▁Law": 8676,
      ")[[1": 8677,
      "ndl": 8678,
      "undp.org/": 8679,
      "7.208": 8680,
      "0521": 8681,
      "▁31": 8682,
      "▁77.208": 8683,
      "\"](https://web.archive.org/web/20140": 8684,
      "dustrial": 8685,
      "1/DD": 8686,
      "▁[International": 8687,
      "ctorate": 8688,
      "ribution": 8689,
      "\").\n4": 8690,
      "-factbook/": 8691,
      "UNHDR": 8692,
      "censusindia.gov.in/2011census/population": 8693,
      "censusindia.gov.in/2011census/C-0": 8694,
      ".htm).": 8695,
      "_enumeration": 8696,
      "DDS.": 8697,
      "▁Environmental": 8698,
      "/articleshow/": 8699,
      "-language\\_text\n": 8700,
      "iteracy": 8701,
      "C-01%20M": 8702,
      ".org*.": 8703,
      "india.gov.in/india-glance/profile": 8704,
      ".bnf.fr/ark:/12148/cb11934238": 8705,
      "iotech": 8706,
      "aranth": 8707,
      "ecutive": 8708,
      "▁3,287,263": 8709,
      "voyage": 8710,
      "hattisgarh": 8711,
      "apiens": 8712,
      "61389": 8713,
      "XLS": 8714,
      "hār": 8715,
      "Lotus": 8716,
      "W00C-01%20M": 8717,
      "the-world-factbook/": 8718,
      "▁trillion": 8719,
      "▁77.20833": 8720,
      "1/DDW00C-01%20M": 8721,
      "censusindia.gov.in/2011census/population_enumeration": 8722,
      "censusindia.gov.in/2011census/C-01/DDW00C-01%20M": 8723,
      "DDS.XLS": 8724,
      ".bnf.fr/ark:/12148/cb11934238p)": 8725,
      "censusindia.gov.in/2011census/C-01/DDW00C-01%20MDDS.XLS": 8726,
      ")\"))": 8727,
      "-H": 8728,
      "-no": 8729,
      "-li": 8730,
      "-50": 8731,
      "-II": 8732,
      "-logo": 8733,
      "/F": 8734,
      "1]](https://en.wikipedia.org/wiki/India#cite_note-": 8735,
      "72": 8736,
      "7]](https://en.wikipedia.org/wiki/India#cite_note-": 8737,
      "8]](https://en.wikipedia.org/wiki/India#cite_note-FOOTNOTE": 8738,
      "905": 8739,
      "Bharat": 8740,
      "Countries": 8741,
      "Ex": 8742,
      "Nav": 8743,
      "Wright": 8744,
      "_1.": 8745,
      "a](https://en.wikipedia.org/wiki/South": 8746,
      "bd": 8747,
      "cu": 8748,
      "caste": 8749,
      "ctive": 8750,
      "hs": 8751,
      "iodiversity": 8752,
      "mall": 8753,
      "ocal": 8754,
      "ppe": 8755,
      "pace": 8756,
      "spect": 8757,
      "tou": 8758,
      "uries": 8759,
      "var": 8760,
      "vil": 8761,
      "wat": 8762,
      "zd": 8763,
      "▁known": 8764,
      "dis": 8765,
      "ora": 8766,
      "orb": 8767,
      "orpor": 8768,
      "](Special:EditPage/Template": 8769,
      "▁\"Special:EditPage/Template": 8770,
      "\")1": 8771,
      "reen": 8772,
      "alp": 8773,
      "alace": 8774,
      "ardian": 8775,
      "erm": 8776,
      "](https://en.wikipedia.org/wiki/National": 8777,
      "▁(1):": 8778,
      "rian": 8779,
      "ride": 8780,
      "asu": 8781,
      "aten": 8782,
      "▁indi": 8783,
      "▁inte": 8784,
      "▁independence": 8785,
      "\n\nThe": 8786,
      "etwork": 8787,
      "▁prac": 8788,
      "▁cre": 8789,
      "▁cal": 8790,
      "▁census": 8791,
      "ficient": 8792,
      "▁talk": 8793,
      "▁[↑](https://en.wikipedia.org/wiki/India": 8794,
      "▁based": 8795,
      "▁fe": 8796,
      "▁Prin": 8797,
      "▁mar": 8798,
      "▁military": 8799,
      "chol": 8800,
      ".\n1": 8801,
      "rove": 8802,
      "roco": 8803,
      "rowing": 8804,
      "ourism": 8805,
      "jpg)": 8806,
      "▁Tim": 8807,
      "](https://en.wikipedia.org/wiki/India#cite_ref-vatsyayan-lord_43": 8808,
      "2649": 8809,
      "▁Dance": 8810,
      "▁Dyson": 8811,
      "▁east": 8812,
      "ayana": 8813,
      "igin": 8814,
      "igved": 8815,
      "ign_": 8816,
      "igration": 8817,
      "lymp": 8818,
      "ctu": 8819,
      "▁last": 8820,
      "_in_A": 8821,
      "beral": 8822,
      "sey": 8823,
      "▁Ganges": 8824,
      "▁Gujarat": 8825,
      "tual": 8826,
      "-349": 8827,
      "Harvard": 8828,
      "18.": 8829,
      "▁gar": 8830,
      "▁rel": 8831,
      "_and_N": 8832,
      "_and_Development": 8833,
      "](https://en.wikipedia.org/wiki/India#CITEREFM": 8834,
      "▁though": 8835,
      "_Cooperation": 8836,
      ".gov.": 8837,
      "▁become": 8838,
      "▁\"Central": 8839,
      "▁\"Climate": 8840,
      "▁[China": 8841,
      "352": 8842,
      "](https://en.wikipedia.org/wiki/China": 8843,
      "emen": 8844,
      "ajas": 8845,
      "ajya": 8846,
      "](https://en.wikipedia.org/wiki/Ministry_of_": 8847,
      "_Times": 8848,
      "undarb": 8849,
      "rchitecture": 8850,
      "398": 8851,
      "▁direct": 8852,
      "_Games": 8853,
      "_Ram": 8854,
      "▁ancient": 8855,
      "▁\"De": 8856,
      "▁\"Delhi": 8857,
      "▁3166": 8858,
      "engal_": 8859,
      "▁Vedic": 8860,
      "](https://en.wikipedia.org/wiki/Template_": 8861,
      "](https://en.wikipedia.org/wiki/Delhi": 8862,
      "_Economic": 8863,
      "▁2011](https://en.wikipedia.org/wiki/India#CITEREF": 8864,
      "genous": 8865,
      "▁\"Routledge": 8866,
      "](https://en.wikipedia.org/wiki/Routledge": 8867,
      "](https://en.wikipedia.org/wiki/List_of_countries_by": 8868,
      "62-1": 8869,
      "▁2014](https://en.wikipedia.org/wiki/India#CITEREF": 8870,
      "▁[Tamil": 8871,
      "▁[Routledge": 8872,
      "▁Un": 8873,
      "▁tea": 8874,
      "▁centuries": 8875,
      "ronom": 8876,
      "uropean_": 8877,
      "▁[History": 8878,
      "▁leg": 8879,
      "▁plain": 8880,
      "_music": 8881,
      "▁[Fisher": 8882,
      "▁milk": 8883,
      "▁[t](https://en.wikipedia.org/wiki/Template_": 8884,
      "talk": 8885,
      "▁[e](Special:EditPage/Template": 8886,
      "▁[v](Template": 8887,
      "_of_the_": 8888,
      "▁numbers": 8889,
      "-level": 8890,
      "▁Talbot,": 8891,
      "Fisher2018),": 8892,
      "_01": 8893,
      "_top": 8894,
      "cms)": 8895,
      "▁Buddha": 8896,
      "▁upper": 8897,
      "Environment": 8898,
      "default": 8899,
      "▁refor": 8900,
      "▁mathematics": 8901,
      "▁2018](https://en.wikipedia.org/wiki/India#CITEREFFisher2018),": 8902,
      "▁Conservation": 8903,
      "ibetan": 8904,
      ":India\")": 8905,
      "rotected": 8906,
      "](https://en.wikipedia.org/wiki/History_of_": 8907,
      "▁republic": 8908,
      "-4020-55": 8909,
      "loc.gov/": 8910,
      "▁appro": 8911,
      "forcement": 8912,
      "Library_of_Congress": 8913,
      "_Programme": 8914,
      "▁1994](https://en.wikipedia.org/wiki/India#CITEREF": 8915,
      "▁India](https://en.wikipedia.org/wiki/Government_of_India": 8916,
      "▁domestic": 8917,
      "struction": 8918,
      "▁zone": 8919,
      "▁Games\")": 8920,
      "-107-02649": 8921,
      "ulturNav": 8922,
      "iNii": 8923,
      "Emblem": 8924,
      "▁engineering": 8925,
      "limate_": 8926,
      "▁village": 8927,
      "6]](https://en.wikipedia.org/wiki/India#cite_note-vatsyayan-lord-432)": 8928,
      "8+5": 8929,
      "▁democ": 8930,
      "▁millennium": 8931,
      "Wright2010": 8932,
      "touch": 8933,
      "rocodi": 8934,
      "▁Dyson,": 8935,
      "▁[China](https://en.wikipedia.org/wiki/China": 8936,
      "undarbans": 8937,
      "▁\"Routledge\").": 8938,
      "▁[Routledge](https://en.wikipedia.org/wiki/Routledge": 8939,
      "▁[t](https://en.wikipedia.org/wiki/Template_talk": 8940,
      "-4020-5562-1": 8941,
      "-107-02649-0": 8942,
      "(قومي": 8943,
      ")،": 8944,
      "-G": 8945,
      "-गंगा": 8946,
      ".\"": 8947,
      "B1": 8948,
      "Gledhill": 8949,
      "OI": 8950,
      "OLA": 8951,
      "_گ": 8952,
      "_ڀارت": 8953,
      "_28": 8954,
      "_پي": 8955,
      "_علائق": 8956,
      "a-b": 8957,
      "jec": 8958,
      "ption": 8959,
      "r.": 8960,
      "ئي_": 8961,
      "بت": 8962,
      "جان": 8963,
      "جي_": 8964,
      "حول": 8965,
      "دين": 8966,
      "داني": 8967,
      "رف": 8968,
      "زا": 8969,
      "زو": 8970,
      "سڃاڻپ": 8971,
      "شي": 8972,
      "صادي": 8973,
      "غلطيون": 8974,
      "قن": 8975,
      "قاب": 8976,
      "لڊ": 8977,
      "مام": 8978,
      "وش": 8979,
      "پتا": 8980,
      "ڙهه": 8981,
      "کنڊ": 8982,
      "ڪيل": 8983,
      "ڪندڙ": 8984,
      "گنگا": 8985,
      "ڻيڪ": 8986,
      "ھر": 8987,
      "ँकि": 8988,
      "ंबर": 8989,
      "इल": 8990,
      "ईस्ट": 8991,
      "ऊर्जा": 8992,
      "ऋतु": 8993,
      "ऑपरेशन": 8994,
      "कु": 8995,
      "जवा": 8996,
      "तग": 8997,
      "त्या": 8998,
      "तमान": 8999,
      "थी": 9000,
      "दु": 9001,
      "नत": 9002,
      "ल्त": 9003,
      "वत": 9004,
      "शील": 9005,
      "सत": 9006,
[...]
